<pad>	0
<unk>	0
<s>	0
</s>	0
▁t	-0
▁th	-1
▁a	-2
in	-3
▁w	-4
▁the	-5
re	-6
▁o	-7
▁s	-8
at	-9
nd	-10
er	-11
ou	-12
is	-13
it	-14
▁c	-15
▁b	-16
ing	-17
▁h	-18
▁m	-19
▁to	-20
en	-21
on	-22
▁p	-23
ll	-24
an	-25
▁f	-26
▁of	-27
▁d	-28
▁I	-29
es	-30
or	-31
▁in	-32
▁and	-33
▁l	-34
▁y	-35
ed	-36
ar	-37
▁that	-38
▁g	-39
▁you	-40
om	-41
as	-42
ic	-43
le	-44
ve	-45
▁A	-46
▁wh	-47
▁it	-48
ow	-49
▁n	-50
▁we	-51
al	-52
▁is	-53
ut	-54
▁be	-55
us	-56
▁e	-57
ot	-58
ion	-59
et	-60
▁T	-61
▁on	-62
▁And	-63
▁ha	-64
ld	-65
ver	-66
▁re	-67
ent	-68
id	-69
ay	-70
ct	-71
▁Th	-72
▁this	-73
▁-	-74
▁--	-75
all	-76
ig	-77
se	-78
ere	-79
im	-80
▁S	-81
st	-82
ro	-83
ch	-84
▁st	-85
ke	-86
ly	-87
ce	-88
▁was	-89
ur	-90
if	-91
▁do	-92
▁k	-93
▁for	-94
▁an	-95
▁W	-96
▁go	-97
ra	-98
ally	-99
▁are	-100
th	-101
ith	-102
op	-103
▁ab	-104
ir	-105
▁have	-106
▁u	-107
▁se	-108
▁with	-109
am	-110
▁they	-111
out	-112
ol	-113
▁B	-114
▁can	-115
▁what	-116
ht	-117
▁as	-118
very	-119
▁about	-120
od	-121
▁com	-122
▁he	-123
▁wor	-124
▁li	-125
ill	-126
ould	-127
ad	-128
▁So	-129
▁at	-130
ation	-131
▁all	-132
▁so	-133
ant	-134
▁mo	-135
▁not	-136
▁me	-137
▁sh	-138
ust	-139
▁there	-140
il	-141
▁kn	-142
▁j	-143
ter	-144
▁som	-145
▁ne	-146
▁"	-147
ge	-148
ul	-149
use	-150
▁ex	-151
▁The	-152
▁know	-153
▁r	-154
ight	-155
▁pro	-156
▁fr	-157
ok	-158
▁or	-159
▁lo	-160
ure	-161
ck	-162
▁one	-163
▁ch	-164
ers	-165
▁It	-166
pp	-167
ear	-168
▁pe	-169
▁thing	-170
art	-171
▁like	-172
▁my	-173
ink	-174
um	-175
▁ma	-176
ind	-177
ople	-178
ca	-179
▁We	-180
▁de	-181
▁N	-182
▁out	-183
▁people	-184
▁con	-185
est	-186
ess	-187
▁from	-188
▁but	-189
ble	-190
ive	-191
▁int	-192
ate	-193
nt	-194
qu	-195
ity	-196
▁just	-197
ist	-198
ies	-199
▁think	-200
▁very	-201
▁H	-202
▁going	-203
▁M	-204
▁C	-205
▁up	-206
▁te	-207
cause	-208
ect	-209
rou	-210
▁get	-211
un	-212
ide	-213
▁al	-214
▁Y	-215
ie	-216
▁sp	-217
ich	-218
▁if	-219
▁see	-220
▁them	-221
▁us	-222
▁these	-223
▁1	-224
▁who	-225
ort	-226
▁tr	-227
▁v	-228
▁But	-229
▁pl	-230
her	-231
and	-232
os	-233
og	-234
00	-235
▁some	-236
el	-237
▁sa	-238
▁because	-239
▁by	-240
▁our	-241
▁don	-242
▁year	-243
▁really	-244
ain	-245
▁had	-246
▁which	-247
▁O	-248
▁would	-249
▁want	-250
▁here	-251
."	-252
▁tim	-253
▁look	-254
▁comp	-255
ap	-256
▁when	-257
▁your	-258
our	-259
ard	-260
▁♫	-261
▁E	-262
ack	-263
▁say	-264
▁work	-265
▁more	-266
▁were	-267
ame	-268
▁act	-269
ci	-270
ine	-271
▁You	-272
▁This	-273
hing	-274
▁way	-275
▁Wh	-276
▁how	-277
ous	-278
▁things	-279
iz	-280
ast	-281
iv	-282
▁then	-283
▁im	-284
em	-285
gh	-286
ually	-287
▁time	-288
▁G	-289
ore	-290
▁world	-291
act	-292
▁su	-293
itt	-294
▁en	-295
▁D	-296
ong	-297
▁P	-298
▁qu	-299
ose	-300
alk	-301
one	-302
▁exp	-303
▁ta	-304
▁has	-305
reat	-306
ment	-307
ther	-308
▁every	-309
▁into	-310
ace	-311
▁co	-312
▁their	-313
▁will	-314
▁le	-315
▁could	-316
ild	-317
▁did	-318
▁years	-319
▁L	-320
▁now	-321
▁per	-322
ence	-323
▁kind	-324
res	-325
ag	-326
▁ag	-327
▁said	-328
▁fe	-329
▁ev	-330
▁somet	-331
▁any	-332
▁make	-333
ans	-334
▁bu	-335
▁other	-336
▁actually	-337
▁where	-338
▁R	-339
red	-340
ff	-341
ab	-342
▁man	-343
ign	-344
ions	-345
▁got	-346
own	-347
▁right	-348
▁happ	-349
▁been	-350
ric	-351
wo	-352
nder	-353
ittle	-354
age	-355
▁back	-356
▁little	-357
▁something	-358
olog	-359
ree	-360
▁no	-361
▁F	-362
▁des	-363
iff	-364
irst	-365
▁They	-366
ach	-367
▁than	-368
ri	-369
▁start	-370
▁un	-371
ud	-372
▁cl	-373
ife	-374
▁part	-375
ry	-376
▁lot	-377
▁2	-378
▁Now	-379
▁po	-380
ite	-381
▁talk	-382
are	-383
▁diff	-384
▁In	-385
ell	-386
▁over	-387
ory	-388
round	-389
ical	-390
▁two	-391
▁first	-392
pt	-393
▁ar	-394
uch	-395
▁call	-396
▁That	-397
way	-398
ens	-399
so	-400
▁much	-401
ia	-402
ody	-403
▁imp	-404
ght	-405
ount	-406
▁dis	-407
▁need	-408
ip	-409
▁life	-410
▁differe	-411
▁ro	-412
ound	-413
ick	-414
ice	-415
ber	-416
▁those	-417
ome	-418
ang	-419
int	-420
▁down	-421
ms	-422
▁cont	-423
ces	-424
▁new	-425
ater	-426
cent	-427
▁spe	-428
▁put	-429
ep	-430
ple	-431
▁good	-432
▁ph	-433
▁J	-434
ue	-435
ass	-436
sel	-437
co	-438
▁his	-439
▁ide	-440
▁only	-441
ving	-442
▁fo	-443
▁bo	-444
other	-445
▁she	-446
▁pr	-447
▁also	-448
orm	-449
▁most	-450
ars	-451
▁There	-452
▁bet	-453
▁under	-454
able	-455
▁ad	-456
▁am	-457
▁ac	-458
ult	-459
vel	-460
ak	-461
▁around	-462
▁does	-463
▁doing	-464
▁design	-465
ance	-466
▁hum	-467
▁real	-468
ish	-469
▁day	-470
▁show	-471
mer	-472
▁What	-473
▁take	-474
▁try	-475
ph	-476
ark	-477
chn	-478
urn	-479
ated	-480
▁being	-481
▁pre	-482
pl	-483
body	-484
du	-485
ase	-486
▁come	-487
▁thou	-488
rough	-489
▁different	-490
illion	-491
ict	-492
ru	-493
ations	-494
ves	-495
▁sy	-496
▁bl	-497
ire	-498
▁Af	-499
ary	-500
ade	-501
▁res	-502
▁many	-503
rain	-504
▁through	-505
▁He	-506
ology	-507
▁even	-508
▁tell	-509
▁build	-510
▁techn	-511
▁happen	-512
ange	-513
▁big	-514
xt	-515
▁three	-516
ial	-517
▁sm	-518
he	-519
▁gen	-520
ning	-521
▁off	-522
▁U	-523
ject	-524
thing	-525
▁same	-526
be	-527
▁use	-528
pe	-529
▁fl	-530
▁gu	-531
ress	-532
ful	-533
▁br	-534
ible	-535
▁K	-536
cess	-537
ting	-538
ank	-539
erest	-540
ert	-541
ne	-542
▁If	-543
▁wr	-544
▁great	-545
ically	-546
▁fact	-547
▁Afric	-548
▁proble	-549
ib	-550
ents	-551
iver	-552
wn	-553
▁may	-554
ob	-555
ved	-556
ors	-557
▁comm	-558
▁her	-559
day	-560
ether	-561
▁mean	-562
ys	-563
tern	-564
ile	-565
▁find	-566
▁called	-567
ious	-568
▁made	-569
▁interest	-570
▁well	-571
▁human	-572
▁sim	-573
fore	-574
000	-575
▁Ch	-576
▁inc	-577
▁af	-578
▁long	-579
▁inv	-580
king	-581
▁why	-582
igh	-583
▁app	-584
▁thought	-585
ual	-586
▁pers	-587
▁count	-588
te	-589
ft	-590
ath	-591
▁bec	-592
▁sort	-593
▁idea	-594
▁last	-595
ize	-596
olut	-597
self	-598
les	-599
,000	-600
▁again	-601
▁percent	-602
ew	-603
▁ra	-604
ord	-605
form	-606
ics	-607
▁let	-608
▁didn	-609
row	-610
▁car	-611
▁quest	-612
▁sur	-613
▁rel	-614
ons	-615
ty	-616
▁went	-617
nds	-618
ven	-619
▁should	-620
ough	-621
▁ind	-622
▁Well	-623
ren	-624
ac	-625
gan	-626
▁bel	-627
▁point	-628
▁import	-629
we	-630
▁plan	-631
ied	-632
▁dec	-633
▁exper	-634
▁him	-635
ition	-636
▁em	-637
▁OK	-638
ating	-639
▁child	-640
▁comput	-641
stem	-642
▁tra	-643
▁turn	-644
▁rem	-645
▁end	-646
▁pos	-647
▁started	-648
▁underst	-649
▁another	-650
▁bit	-651
▁after	-652
▁sc	-653
▁feel	-654
▁Be	-655
ower	-656
av	-657
ian	-658
▁play	-659
ates	-660
▁own	-661
▁important	-662
▁stu	-663
ction	-664
?"	-665
▁bas	-666
▁person	-667
▁stud	-668
ull	-669
ense	-670
▁gra	-671
▁cour	-672
▁ob	-673
▁system	-674
..	-675
▁op	-676
▁19	-677
▁ask	-678
▁before	-679
▁whole	-680
▁V	-681
▁ago	-682
ities	-683
▁Africa	-684
▁give	-685
▁inst	-686
▁3	-687
▁change	-688
ub	-689
ost	-690
▁sci	-691
▁came	-692
▁next	-693
ave	-694
ese	-695
▁10	-696
ience	-697
▁understand	-698
▁hel	-699
▁creat	-700
▁sl	-701
▁kid	-702
▁produ	-703
ood	-704
▁gl	-705
▁million	-706
▁love	-707
▁technology	-708
▁book	-709
▁ele	-710
▁today	-711
,"	-712
ail	-713
▁St	-714
▁better	-715
▁building	-716
▁course	-717
▁found	-718
▁never	-719
▁place	-720
ular	-721
ature	-722
▁ent	-723
▁four	-724
ise	-725
▁num	-726
▁belie	-727
▁ke	-728
ists	-729
▁doll	-730
ix	-731
▁lear	-732
▁brain	-733
ah	-734
▁looking	-735
▁story	-736
▁small	-737
▁its	-738
read	-739
▁ter	-740
cond	-741
▁few	-742
▁help	-743
▁still	-744
▁mod	-745
▁high	-746
▁inter	-747
▁trans	-748
old	-749
ility	-750
iness	-751
ways	-752
iss	-753
kes	-754
▁able	-755
side	-756
icture	-757
▁ser	-758
als	-759
▁space	-760
cho	-761
oth	-762
ably	-763
▁partic	-764
▁ext	-765
▁tog	-766
▁together	-767
arth	-768
▁picture	-769
▁exam	-770
ited	-771
▁art	-772
ram	-773
▁fin	-774
▁problem	-775
ward	-776
meric	-777
▁expl	-778
▁question	-779
▁5	-780
ss	-781
▁done	-782
velop	-783
▁comple	-784
▁old	-785
ather	-786
▁might	-787
con	-788
▁mon	-789
▁Because	-790
ized	-791
ily	-792
▁How	-793
▁Americ	-794
ween	-795
uc	-796
▁stuff	-797
▁working	-798
oney	-799
▁wanted	-800
cial	-801
▁cre	-802
▁min	-803
▁dollars	-804
und	-805
az	-806
lic	-807
chool	-808
ork	-809
▁20	-810
▁cr	-811
▁too	-812
▁poss	-813
▁trying	-814
▁each	-815
▁Thank	-816
▁always	-817
nce	-818
▁mus	-819
▁wom	-820
▁imag	-821
▁fam	-822
▁read	-823
▁far	-824
▁lar	-825
▁coll	-826
▁cons	-827
▁develop	-828
▁dr	-829
atch	-830
▁el	-831
▁pie	-832
▁reas	-833
▁power	-834
▁cent	-835
▁move	-836
▁When	-837
ng	-838
here	-839
▁away	-840
▁doesn	-841
▁univer	-842
▁bi	-843
cept	-844
▁war	-845
olution	-846
gin	-847
▁la	-848
▁bus	-849
▁pat	-850
▁project	-851
ness	-852
▁met	-853
▁used	-854
▁interesting	-855
▁kids	-856
▁prob	-857
ote	-858
▁sk	-859
▁planet	-860
cy	-861
▁word	-862
▁between	-863
▁sense	-864
▁money	-865
ific	-866
ered	-867
ird	-868
ope	-869
▁took	-870
ural	-871
▁school	-872
per	-873
aut	-874
ced	-875
▁att	-876
▁commun	-877
▁believe	-878
ont	-879
▁str	-880
ever	-881
ruct	-882
▁everything	-883
▁gener	-884
gy	-885
▁4	-886
▁ever	-887
▁five	-888
▁getting	-889
vers	-890
▁run	-891
▁wo	-892
iew	-893
▁children	-894
arch	-895
▁hard	-896
▁example	-897
▁computer	-898
ism	-899
▁live	-900
ertain	-901
ative	-902
▁says	-903
▁Un	-904
▁water	-905
▁number	-906
▁cap	-907
atter	-908
▁second	-909
▁quite	-910
▁thinking	-911
oy	-912
▁organ	-913
▁sub	-914
▁head	-915
▁One	-916
▁supp	-917
▁eff	-918
▁coming	-919
▁fun	-920
▁mark	-921
▁walk	-922
▁learn	-923
▁light	-924
▁ca	-925
▁pres	-926
▁enough	-927
▁talking	-928
alf	-929
▁anim	-930
▁compan	-931
▁making	-932
▁probably	-933
oc	-934
▁open	-935
▁Earth	-936
▁country	-937
ock	-938
▁rec	-939
▁prog	-940
▁beaut	-941
ational	-942
ogra	-943
alth	-944
▁beh	-945
▁spec	-946
tty	-947
air	-948
▁No	-949
ings	-950
▁These	-951
▁left	-952
▁month	-953
ross	-954
▁giv	-955
▁form	-956
▁An	-957
▁pol	-958
▁pretty	-959
ks	-960
▁med	-961
gg	-962
▁ed	-963
▁grow	-964
ets	-965
▁Here	-966
ital	-967
▁God	-968
▁anything	-969
▁char	-970
▁hand	-971
ouse	-972
▁cor	-973
▁cou	-974
▁process	-975
▁mom	-976
roup	-977
▁less	-978
▁begin	-979
ines	-980
▁maybe	-981
▁room	-982
sw	-983
eah	-984
selves	-985
▁elect	-986
▁using	-987
formation	-988
▁happened	-989
▁experience	-990
aces	-991
ger	-992
led	-993
▁rep	-994
▁chang	-995
▁wonder	-996
▁sing	-997
me	-998
lear	-999
conom	-1000
hip	-1001
▁fig	-1002
▁group	-1003
▁'	-1004
▁As	-1005
▁phot	-1006
its	-1007
▁food	-1008
▁guy	-1009
▁best	-1010
▁saying	-1011
▁business	-1012
▁answ	-1013
▁else	-1014
▁universe	-1015
▁become	-1016
li	-1017
ergy	-1018
ries	-1019
▁New	-1020
▁air	-1021
iting	-1022
▁side	-1023
▁resp	-1024
cus	-1025
iron	-1026
▁comes	-1027
rib	-1028
▁care	-1029
▁create	-1030
▁econom	-1031
ott	-1032
▁add	-1033
▁inf	-1034
▁fut	-1035
▁pub	-1036
▁vis	-1037
ments	-1038
▁mind	-1039
▁My	-1040
▁ant	-1041
▁sol	-1042
▁mach	-1043
▁piece	-1044
ract	-1045
▁col	-1046
ograph	-1047
▁model	-1048
▁future	-1049
▁ear	-1050
▁eng	-1051
▁All	-1052
▁opp	-1053
ention	-1054
▁means	-1055
▁figure	-1056
nect	-1057
▁hist	-1058
▁seen	-1059
▁matter	-1060
▁bring	-1061
▁later	-1062
ED	-1063
▁goes	-1064
▁half	-1065
▁hope	-1066
▁times	-1067
▁gr	-1068
▁bad	-1069
▁stand	-1070
▁keep	-1071
▁such	-1072
ilt	-1073
ember	-1074
▁cell	-1075
▁cur	-1076
▁exc	-1077
ories	-1078
ute	-1079
▁Se	-1080
iter	-1081
vern	-1082
▁set	-1083
▁ideas	-1084
▁reason	-1085
idd	-1086
ond	-1087
▁conf	-1088
▁lead	-1089
▁music	-1090
▁contin	-1091
▁six	-1092
ization	-1093
▁energy	-1094
▁cam	-1095
ately	-1096
ince	-1097
▁list	-1098
▁simple	-1099
▁science	-1100
ues	-1101
unch	-1102
▁acc	-1103
▁wee	-1104
▁home	-1105
▁billion	-1106
▁everybody	-1107
aps	-1108
▁She	-1109
ortun	-1110
▁dist	-1111
ash	-1112
▁phys	-1113
▁having	-1114
ris	-1115
▁teach	-1116
▁problems	-1117
ner	-1118
▁asked	-1119
▁basically	-1120
▁mor	-1121
▁land	-1122
...	-1123
▁ty	-1124
▁mil	-1125
▁stop	-1126
▁certain	-1127
ook	-1128
▁TED	-1129
▁dat	-1130
▁told	-1131
ructure	-1132
▁information	-1133
▁without	-1134
iful	-1135
most	-1136
▁saw	-1137
▁Is	-1138
▁For	-1139
▁makes	-1140
▁govern	-1141
ages	-1142
reen	-1143
▁100	-1144
▁env	-1145
▁top	-1146
ident	-1147
▁happens	-1148
▁particular	-1149
▁ord	-1150
▁reg	-1151
▁days	-1152
▁frie	-1153
lf	-1154
where	-1155
▁city	-1156
▁true	-1157
▁incred	-1158
▁complete	-1159
▁market	-1160
▁6	-1161
▁...	-1162
▁women	-1163
ten	-1164
ided	-1165
ying	-1166
▁equ	-1167
▁cult	-1168
▁looks	-1169
▁nature	-1170
▁hour	-1171
▁sure	-1172
▁ways	-1173
▁beautiful	-1174
▁ey	-1175
▁allow	-1176
▁moment	-1177
rop	-1178
▁ins	-1179
▁possible	-1180
▁sign	-1181
▁history	-1182
▁must	-1183
▁pass	-1184
▁200	-1185
▁def	-1186
ake	-1187
uth	-1188
▁Al	-1189
ator	-1190
▁contro	-1191
▁health	-1192
ideo	-1193
ient	-1194
▁eas	-1195
ron	-1196
▁living	-1197
▁scient	-1198
▁environ	-1199
ape	-1200
uck	-1201
▁single	-1202
▁both	-1203
▁species	-1204
▁dise	-1205
▁heard	-1206
▁across	-1207
▁answer	-1208
▁nothing	-1209
man	-1210
▁job	-1211
▁unt	-1212
▁deal	-1213
▁quick	-1214
▁almost	-1215
▁connect	-1216
▁pop	-1217
▁data	-1218
▁rest	-1219
aterial	-1220
ead	-1221
ken	-1222
▁mag	-1223
ready	-1224
osed	-1225
▁cra	-1226
▁amaz	-1227
▁body	-1228
▁dire	-1229
▁case	-1230
▁built	-1231
cer	-1232
ware	-1233
▁sit	-1234
▁disco	-1235
▁large	-1236
▁countries	-1237
hat	-1238
reak	-1239
▁view	-1240
ety	-1241
land	-1242
▁once	-1243
▁soci	-1244
ina	-1245
▁che	-1246
ulation	-1247
io	-1248
face	-1249
▁product	-1250
▁heart	-1251
cle	-1252
ene	-1253
▁looked	-1254
▁material	-1255
ins	-1256
ots	-1257
▁hu	-1258
▁ref	-1259
uring	-1260
vious	-1261
▁cost	-1262
▁fore	-1263
▁50	-1264
▁won	-1265
ality	-1266
▁couple	-1267
cl	-1268
gs	-1269
imes	-1270
▁hear	-1271
ax	-1272
▁Let	-1273
▁months	-1274
▁already	-1275
▁somebody	-1276
▁environment	-1277
▁det	-1278
▁kill	-1279
bs	-1280
ier	-1281
ush	-1282
▁dem	-1283
▁mem	-1284
▁educ	-1285
▁prop	-1286
▁wrong	-1287
med	-1288
▁par	-1289
▁lives	-1290
▁remember	-1291
ury	-1292
angu	-1293
reme	-1294
iddle	-1295
▁arch	-1296
▁Every	-1297
▁along	-1298
▁effect	-1299
ught	-1300
itive	-1301
▁night	-1302
▁indust	-1303
up	-1304
▁sound	-1305
▁works	-1306
▁fil	-1307
▁wasn	-1308
▁watch	-1309
▁young	-1310
▁within	-1311
llow	-1312
ering	-1313
▁itself	-1314
▁15	-1315
▁isn	-1316
▁amazing	-1317
▁company	-1318
less	-1319
▁langu	-1320
▁level	-1321
▁since	-1322
▁while	-1323
▁pattern	-1324
▁community	-1325
br	-1326
ime	-1327
▁30	-1328
▁Do	-1329
▁stre	-1330
▁until	-1331
outh	-1332
sy	-1333
▁Fr	-1334
ared	-1335
▁abs	-1336
▁inside	-1337
▁America	-1338
▁wonderful	-1339
▁Or	-1340
ional	-1341
▁iss	-1342
▁val	-1343
ivity	-1344
▁video	-1345
▁United	-1346
▁age	-1347
▁ass	-1348
▁dra	-1349
▁intell	-1350
▁public	-1351
▁present	-1352
▁completely	-1353
The	-1354
▁pain	-1355
▁exact	-1356
▁imagine	-1357
▁evolution	-1358
▁Why	-1359
▁nat	-1360
▁yet	-1361
olved	-1362
aw	-1363
dd	-1364
▁wa	-1365
▁sw	-1366
ases	-1367
▁Intern	-1368
▁program	-1369
▁whether	-1370
▁z	-1371
Well	-1372
lish	-1373
utes	-1374
arent	-1375
▁Then	-1376
▁self	-1377
▁speak	-1378
▁couldn	-1379
▁myself	-1380
to	-1381
▁9	-1382
ired	-1383
pect	-1384
itect	-1385
▁gets	-1386
orn	-1387
▁line	-1388
▁prof	-1389
▁tool	-1390
ousand	-1391
▁front	-1392
▁area	-1393
▁rather	-1394
ield	-1395
ling	-1396
▁happy	-1397
▁treat	-1398
▁places	-1399
ological	-1400
▁aff	-1401
aster	-1402
imate	-1403
▁test	-1404
▁const	-1405
▁kinds	-1406
▁liter	-1407
▁words	-1408
▁engine	-1409
▁opportun	-1410
▁structure	-1411
de	-1412
aper	-1413
ures	-1414
acter	-1415
▁news	-1416
▁house	-1417
▁ones	-1418
▁orig	-1419
▁seven	-1420
urs	-1421
▁free	-1422
itical	-1423
▁family	-1424
▁decided	-1425
▁experim	-1426
ump	-1427
ants	-1428
fect	-1429
omet	-1430
▁cut	-1431
▁States	-1432
▁thousand	-1433
▁7	-1434
ames	-1435
ully	-1436
▁sca	-1437
imens	-1438
▁whatever	-1439
NA	-1440
ex	-1441
▁ple	-1442
▁exactly	-1443
obal	-1444
▁rese	-1445
▁began	-1446
▁outside	-1447
▁Internet	-1448
▁beginning	-1449
▁moving	-1450
ee	-1451
▁di	-1452
ibly	-1453
allen	-1454
▁bott	-1455
▁guys	-1456
▁name	-1457
cc	-1458
▁[	-1459
▁tot	-1460
▁order	-1461
▁though	-1462
ivid	-1463
ming	-1464
▁extra	-1465
ane	-1466
gen	-1467
etic	-1468
▁adv	-1469
▁became	-1470
▁mother	-1471
▁result	-1472
▁interested	-1473
▁photograph	-1474
ts	-1475
ior	-1476
▁hy	-1477
ision	-1478
istic	-1479
▁deep	-1480
▁listen	-1481
▁architect	-1482
ey	-1483
▁spend	-1484
▁turns	-1485
udience	-1486
▁entire	-1487
▁disease	-1488
▁finally	-1489
▁stories	-1490
uro	-1491
wards	-1492
▁York	-1493
▁huge	-1494
▁least	-1495
▁relig	-1496
▁machine	-1497
▁someone	-1498
▁difference	-1499
▁8	-1500
▁men	-1501
▁object	-1502
▁worked	-1503
cul	-1504
ero	-1505
▁Ar	-1506
ices	-1507
▁cho	-1508
▁suc	-1509
▁game	-1510
▁terms	-1511
app	-1512
omes	-1513
▁miss	-1514
▁prot	-1515
▁wind	-1516
▁theory	-1517
ery	-1518
▁At	-1519
▁Pe	-1520
work	-1521
▁squ	-1522
▁yes	-1523
asure	-1524
▁Yeah	-1525
▁knew	-1526
▁mass	-1527
▁past	-1528
undred	-1529
▁often	-1530
▁amount	-1531
▁natural	-1532
apt	-1533
ians	-1534
▁follow	-1535
▁minutes	-1536
ined	-1537
▁cir	-1538
ental	-1539
vered	-1540
▁fund	-1541
▁meet	-1542
▁size	-1543
▁break	-1544
▁surface	-1545
▁hold	-1546
▁clear	-1547
▁death	-1548
▁force	-1549
▁global	-1550
▁relations	-1551
▁Not	-1552
▁bro	-1553
▁sun	-1554
▁incre	-1555
▁taken	-1556
▁social	-1557
▁happening	-1558
▁fly	-1559
▁feet	-1560
▁appro	-1561
▁shape	-1562
▁Go	-1563
gest	-1564
haps	-1565
ivers	-1566
▁invest	-1567
oh	-1568
get	-1569
▁Sh	-1570
bers	-1571
▁pay	-1572
▁Some	-1573
▁rock	-1574
▁short	-1575
▁animals	-1576
▁challen	-1577
▁research	-1578
end	-1579
ler	-1580
year	-1581
▁dev	-1582
itting	-1583
▁close	-1584
▁focus	-1585
▁state	-1586
illions	-1587
▁middle	-1588
▁recent	-1589
▁turned	-1590
▁hundred	-1591
▁perfect	-1592
▁questions	-1593
mb	-1594
ien	-1595
▁DNA	-1596
▁buy	-1597
▁law	-1598
▁vir	-1599
▁vers	-1600
▁Right	-1601
▁complex	-1602
▁Ind	-1603
▁loc	-1604
▁mot	-1605
ability	-1606
▁explain	-1607
icro	-1608
▁net	-1609
▁cond	-1610
▁pick	-1611
▁pric	-1612
▁class	-1613
▁hours	-1614
▁third	-1615
ike	-1616
▁av	-1617
▁da	-1618
cing	-1619
▁dep	-1620
▁early	-1621
▁Can	-1622
olute	-1623
▁eight	-1624
▁woman	-1625
▁obvious	-1626
▁themselves	-1627
els	-1628
▁non	-1629
▁face	-1630
▁leave	-1631
▁government	-1632
ton	-1633
▁var	-1634
▁gave	-1635
▁song	-1636
▁hands	-1637
▁quickly	-1638
bo	-1639
▁Z	-1640
ither	-1641
▁pred	-1642
not	-1643
oss	-1644
orld	-1645
▁rad	-1646
ially	-1647
▁lots	-1648
▁direct	-1649
▁18	-1650
▁cop	-1651
▁intellig	-1652
ats	-1653
▁To	-1654
ards	-1655
itch	-1656
line	-1657
sych	-1658
▁mov	-1659
▁ret	-1660
▁common	-1661
▁expect	-1662
▁taking	-1663
▁students	-1664
▁relationship	-1665
ift	-1666
▁dig	-1667
icult	-1668
inary	-1669
▁dark	-1670
▁books	-1671
▁control	-1672
▁individ	-1673
▁language	-1674
ium	-1675
▁Eng	-1676
▁sec	-1677
▁dest	-1678
ony	-1679
▁cal	-1680
▁exist	-1681
▁seeing	-1682
▁everyone	-1683
▁individual	-1684
min	-1685
▁er	-1686
▁gal	-1687
▁tried	-1688
▁absolute	-1689
▁interact	-1690
▁12	-1691
ides	-1692
ented	-1693
▁desc	-1694
▁gone	-1695
▁miles	-1696
▁instead	-1697
ror	-1698
ream	-1699
▁occ	-1700
▁oil	-1701
▁press	-1702
▁learned	-1703
▁computers	-1704
po	-1705
ret	-1706
▁40	-1707
▁Man	-1708
▁behav	-1709
▁talked	-1710
▁difficult	-1711
no	-1712
rew	-1713
▁eyes	-1714
▁math	-1715
ral	-1716
▁mess	-1717
▁psych	-1718
▁perhaps	-1719
ern	-1720
▁ge	-1721
phere	-1722
▁slow	-1723
▁parts	-1724
▁train	-1725
ann	-1726
erv	-1727
irl	-1728
▁CA	-1729
▁against	-1730
▁electric	-1731
hy	-1732
▁es	-1733
ples	-1734
▁lab	-1735
▁foot	-1736
▁nice	-1737
▁pull	-1738
sh	-1739
ges	-1740
iqu	-1741
atic	-1742
▁draw	-1743
▁surv	-1744
▁wrote	-1745
▁created	-1746
▁morning	-1747
▁education	-1748
ging	-1749
▁pot	-1750
▁team	-1751
▁share	-1752
ination	-1753
▁record	-1754
▁culture	-1755
▁ourselves	-1756
iny	-1757
ule	-1758
▁Br	-1759
avor	-1760
ters	-1761
▁eat	-1762
▁hot	-1763
▁leg	-1764
▁tre	-1765
▁typ	-1766
ument	-1767
▁full	-1768
▁galax	-1769
ountain	-1770
▁serious	-1771
imp	-1772
jor	-1773
ives	-1774
▁Yes	-1775
▁aut	-1776
thers	-1777
▁sens	-1778
▁wall	-1779
verage	-1780
▁collect	-1781
▁yourself	-1782
▁opportunity	-1783
pr	-1784
▁25	-1785
fully	-1786
▁caus	-1787
▁reach	-1788
▁scale	-1789
▁takes	-1790
▁center	-1791
▁parent	-1792
com	-1793
elt	-1794
▁ve	-1795
▁ess	-1796
▁ste	-1797
▁Just	-1798
▁norm	-1799
▁soft	-1800
▁study	-1801
▁People	-1802
▁century	-1803
▁pictures	-1804
▁incredible	-1805
▁On	-1806
▁sell	-1807
▁tele	-1808
ential	-1809
rought	-1810
▁American	-1811
▁literally	-1812
ale	-1813
ove	-1814
ows	-1815
view	-1816
▁May	-1817
▁civ	-1818
▁vol	-1819
ators	-1820
▁easy	-1821
▁fing	-1822
▁stay	-1823
erence	-1824
▁guess	-1825
▁chance	-1826
▁others	-1827
▁society	-1828
▁success	-1829
ik	-1830
ged	-1831
▁die	-1832
▁tem	-1833
▁emer	-1834
itions	-1835
▁field	-1836
▁cannot	-1837
▁jo	-1838
vent	-1839
▁rob	-1840
▁jour	-1841
▁week	-1842
▁event	-1843
▁known	-1844
What	-1845
▁ast	-1846
▁cle	-1847
ledge	-1848
▁major	-1849
▁behind	-1850
▁realized	-1851
▁sometimes	-1852
ilar	-1853
ison	-1854
orth	-1855
▁ris	-1856
▁sex	-1857
ribut	-1858
▁sent	-1859
▁World	-1860
▁famil	-1861
▁grand	-1862
▁paper	-1863
▁speed	-1864
ologies	-1865
▁compet	-1866
▁approach	-1867
of	-1868
▁ap	-1869
ouch	-1870
▁chem	-1871
▁stra	-1872
▁brought	-1873
▁running	-1874
▁learning	-1875
ogn	-1876
▁Sp	-1877
hood	-1878
ites	-1879
▁emb	-1880
cious	-1881
iving	-1882
▁image	-1883
▁access	-1884
▁friends	-1885
mm	-1886
▁Oh	-1887
pped	-1888
rent	-1889
▁low	-1890
▁sum	-1891
light	-1892
▁emot	-1893
▁fall	-1894
▁trad	-1895
idence	-1896
▁South	-1897
▁discovered	-1898
You	-1899
ney	-1900
iger	-1901
▁pur	-1902
ption	-1903
▁mole	-1904
▁prov	-1905
▁color	-1906
▁knows	-1907
▁either	-1908
iversity	-1909
▁African	-1910
▁tw	-1911
head	-1912
▁mar	-1913
astic	-1914
▁step	-1915
▁given	-1916
▁needs	-1917
▁bottom	-1918
▁longer	-1919
▁measure	-1920
▁population	-1921
urb	-1922
▁ill	-1923
▁syn	-1924
▁oper	-1925
▁priv	-1926
▁black	-1927
▁animal	-1928
▁repres	-1929
▁wouldn	-1930
▁anybody	-1931
▁behavior	-1932
▁companies	-1933
▁repl	-1934
▁sold	-1935
▁vill	-1936
▁green	-1937
▁seems	-1938
▁spent	-1939
▁thank	-1940
▁cities	-1941
▁recently	-1942
▁starting	-1943
▁technologies	-1944
ole	-1945
▁arg	-1946
▁lim	-1947
▁wish	-1948
▁resour	-1949
entially	-1950
▁powerful	-1951
lud	-1952
oll	-1953
▁nuc	-1954
▁obs	-1955
▁cool	-1956
▁cells	-1957
▁dimens	-1958
▁friend	-1959
▁strong	-1960
▁travel	-1961
▁reasons	-1962
▁thousands	-1963
!"	-1964
att	-1965
iol	-1966
inci	-1967
vert	-1968
▁insp	-1969
ensive	-1970
▁civil	-1971
▁stage	-1972
▁white	-1973
▁ability	-1974
▁concept	-1975
▁designed	-1976
▁industry	-1977
ug	-1978
ode	-1979
par	-1980
▁hor	-1981
▁situ	-1982
iction	-1983
▁Chris	-1984
▁ground	-1985
▁din	-1986
▁Euro	-1987
▁circ	-1988
▁felt	-1989
▁near	-1990
▁road	-1991
▁gives	-1992
ibility	-1993
▁humans	-1994
▁changed	-1995
▁extreme	-1996
▁support	-1997
▁involved	-1998
bor	-1999
rodu	-2000
▁main	-2001
▁poor	-2002
▁weeks	-2003
▁worth	-2004
▁father	-2005
▁systems	-2006
▁telling	-2007
▁happiness	-2008
▁absolutely	-2009
Oh	-2010
ief	-2011
por	-2012
wood	-2013
▁blog	-2014
cially	-2015
▁knowledge	-2016
cean	-2017
ider	-2018
ried	-2019
▁haven	-2020
▁phone	-2021
▁Europe	-2022
▁meaning	-2023
▁special	-2024
▁character	-2025
yn	-2026
arr	-2027
iod	-2028
nov	-2029
ased	-2030
▁Any	-2031
▁win	-2032
ances	-2033
▁Mars	-2034
▁camp	-2035
▁fast	-2036
▁link	-2037
▁lost	-2038
▁seem	-2039
▁shows	-2040
▁write	-2041
▁spread	-2042
▁changes	-2043
▁forward	-2044
▁sitting	-2045
▁audience	-2046
oph	-2047
ung	-2048
▁fu	-2049
ones	-2050
▁199	-2051
▁ice	-2052
▁cars	-2053
▁clos	-2054
▁fail	-2055
▁drive	-2056
osphere	-2057
▁except	-2058
▁origin	-2059
▁network	-2060
zy	-2061
▁Ph	-2062
amed	-2063
itut	-2064
ored	-2065
▁feed	-2066
▁stat	-2067
▁truth	-2068
ai	-2069
aly	-2070
anz	-2071
ales	-2072
ival	-2073
mers	-2074
▁deg	-2075
▁dog	-2076
arily	-2077
izing	-2078
▁girl	-2079
▁post	-2080
▁serv	-2081
▁tiny	-2082
▁colle	-2083
▁neigh	-2084
▁stick	-2085
ression	-2086
▁during	-2087
▁parents	-2088
▁similar	-2089
▁personal	-2090
▁designers	-2091
▁particles	-2092
ami	-2093
ana	-2094
enn	-2095
ply	-2096
▁60	-2097
▁Re	-2098
ctor	-2099
ogle	-2100
▁yeah	-2101
▁areas	-2102
▁based	-2103
▁camer	-2104
▁tools	-2105
▁touch	-2106
▁anyone	-2107
▁showed	-2108
▁simply	-2109
▁software	-2110
▁incredibly	-2111
lt	-2112
dden	-2113
idge	-2114
lect	-2115
▁needed	-2116
▁period	-2117
▁communic	-2118
▁mountain	-2119
▁experiment	-2120
cks	-2121
iet	-2122
▁aid	-2123
aptop	-2124
▁bene	-2125
▁tree	-2126
▁media	-2127
▁Google	-2128
▁sudden	-2129
▁perform	-2130
▁exciting	-2131
how	-2132
ills	-2133
▁arr	-2134
anger	-2135
ified	-2136
▁cook	-2137
▁depe	-2138
▁door	-2139
▁viol	-2140
▁search	-2141
▁average	-2142
▁becomes	-2143
▁realize	-2144
▁totally	-2145
bit	-2146
▁AI	-2147
▁est	-2148
▁conv	-2149
▁film	-2150
▁requ	-2151
▁type	-2152
though	-2153
▁value	-2154
▁consum	-2155
▁princi	-2156
▁numbers	-2157
eg	-2158
eng	-2159
ext	-2160
▁Cl	-2161
icle	-2162
like	-2163
room	-2164
▁flo	-2165
▁key	-2166
▁rich	-2167
▁China	-2168
▁micro	-2169
▁materials	-2170
pid	-2171
▁By	-2172
ration	-2173
▁favor	-2174
▁includ	-2175
▁sn	-2176
ived	-2177
▁red	-2178
▁comb	-2179
▁soon	-2180
▁nuclear	-2181
▁playing	-2182
▁respons	-2183
50	-2184
rate	-2185
reed	-2186
▁bar	-2187
▁fac	-2188
▁fur	-2189
aring	-2190
ients	-2191
nding	-2192
▁price	-2193
▁super	-2194
▁cancer	-2195
▁nobody	-2196
▁English	-2197
▁developed	-2198
▁developing	-2199
▁scientists	-2200
ev	-2201
ades	-2202
▁arm	-2203
▁dou	-2204
▁fight	-2205
▁lived	-2206
pecially	-2207
▁produce	-2208
▁millions	-2209
▁projects	-2210
aur	-2211
▁opt	-2212
ought	-2213
▁glam	-2214
▁park	-2215
▁save	-2216
▁Where	-2217
▁impro	-2218
▁movie	-2219
▁sever	-2220
▁attack	-2221
▁growth	-2222
▁current	-2223
ns	-2224
osp	-2225
put	-2226
▁16	-2227
ules	-2228
▁map	-2229
▁dead	-2230
▁India	-2231
▁issues	-2232
▁mathem	-2233
▁pieces	-2234
▁general	-2235
▁several	-2236
▁generation	-2237
▁ce	-2238
iant	-2239
▁Web	-2240
▁har	-2241
ished	-2242
verty	-2243
▁died	-2244
▁virt	-2245
ground	-2246
▁fundam	-2247
▁capital	-2248
▁predict	-2249
▁putting	-2250
▁understanding	-2251
ned	-2252
unt	-2253
▁11	-2254
chie	-2255
oring	-2256
▁auth	-2257
ustain	-2258
▁Niger	-2259
▁version	-2260
aby	-2261
port	-2262
▁box	-2263
▁rev	-2264
▁page	-2265
ressed	-2266
▁among	-2267
▁enorm	-2268
▁innov	-2269
▁pract	-2270
▁physics	-2271
▁reality	-2272
▁challenge	-2273
amp	-2274
irth	-2275
omen	-2276
▁Com	-2277
ences	-2278
▁Like	-2279
▁Most	-2280
▁aren	-2281
▁fire	-2282
▁flow	-2283
▁prim	-2284
▁ident	-2285
▁bigger	-2286
▁laptop	-2287
▁recogn	-2288
▁street	-2289
▁growing	-2290
▁poverty	-2291
▁protect	-2292
▁economic	-2293
▁supposed	-2294
bon	-2295
icy	-2296
▁vo	-2297
ique	-2298
rist	-2299
▁Inst	-2300
▁sequ	-2301
▁democ	-2302
▁games	-2303
itional	-2304
▁necess	-2305
▁excited	-2306
▁movement	-2307
▁especially	-2308
eed	-2309
the	-2310
▁Ex	-2311
▁ep	-2312
▁ants	-2313
▁card	-2314
▁redu	-2315
▁site	-2316
▁achie	-2317
▁alone	-2318
▁showing	-2319
▁subject	-2320
▁enormous	-2321
▁institut	-2322
▁essentially	-2323
oke	-2324
oun	-2325
▁flu	-2326
▁With	-2327
▁ball	-2328
▁born	-2329
▁trou	-2330
▁bunch	-2331
▁solar	-2332
▁impact	-2333
▁please	-2334
▁univers	-2335
▁although	-2336
▁machines	-2337
▁political	-2338
by	-2339
go	-2340
apan	-2341
rast	-2342
yond	-2343
▁Cal	-2344
▁enc	-2345
▁saf	-2346
▁sea	-2347
asing	-2348
▁rate	-2349
▁Japan	-2350
▁alive	-2351
▁benef	-2352
▁dream	-2353
▁genes	-2354
▁launch	-2355
▁economy	-2356
▁towards	-2357
▁creating	-2358
▁neighbor	-2359
▁obviously	-2360
▁oh	-2361
onse	-2362
▁hon	-2363
rible	-2364
▁Rich	-2365
▁burn	-2366
▁mult	-2367
▁nine	-2368
▁text	-2369
▁issue	-2370
▁named	-2371
▁separ	-2372
▁store	-2373
▁calcul	-2374
▁hundreds	-2375
rap	-2376
▁Am	-2377
▁Of	-2378
▁dam	-2379
▁sho	-2380
▁fish	-2381
▁Second	-2382
▁modern	-2383
▁visual	-2384
▁attention	-2385
▁conference	-2386
DS	-2387
erm	-2388
ude	-2389
rial	-2390
▁bom	-2391
usion	-2392
▁tend	-2393
▁autom	-2394
▁birth	-2395
▁forth	-2396
▁ocean	-2397
▁rules	-2398
▁beyond	-2399
▁points	-2400
▁biology	-2401
▁writing	-2402
▁certainly	-2403
▁situation	-2404
ipp	-2405
let	-2406
sca	-2407
ears	-2408
edia	-2409
isms	-2410
ster	-2411
▁Joh	-2412
▁dru	-2413
▁Chin	-2414
▁blue	-2415
▁spir	-2416
▁avail	-2417
▁affect	-2418
▁finger	-2419
▁intern	-2420
▁normal	-2421
▁feeling	-2422
▁profess	-2423
▁quality	-2424
▁sustain	-2425
▁village	-2426
▁response	-2427
umb	-2428
▁Bl	-2429
medi	-2430
▁Who	-2431
▁deb	-2432
▁hyd	-2433
▁fair	-2434
▁infl	-2435
▁Christ	-2436
▁groups	-2437
▁further	-2438
▁somehow	-2439
▁critical	-2440
▁positive	-2441
▁extremely	-2442
▁resources	-2443
oon	-2444
ste	-2445
▁Ag	-2446
▁De	-2447
▁Mr	-2448
▁Ro	-2449
aged	-2450
cuss	-2451
rand	-2452
antic	-2453
▁hair	-2454
▁path	-2455
▁First	-2456
▁defin	-2457
▁forms	-2458
▁anyway	-2459
▁Richard	-2460
▁extraord	-2461
▁invented	-2462
▁physical	-2463
No	-2464
▁17	-2465
▁Ge	-2466
anda	-2467
ively	-2468
▁bird	-2469
▁fant	-2470
▁risk	-2471
▁town	-2472
▁Which	-2473
▁earth	-2474
▁graph	-2475
▁minute	-2476
▁digital	-2477
▁walking	-2478
chan	-2479
ring	-2480
▁Pro	-2481
▁atm	-2482
▁ult	-2483
ggest	-2484
▁grav	-2485
▁role	-2486
▁suff	-2487
▁solve	-2488
▁danger	-2489
▁disapp	-2490
▁giving	-2491
▁larger	-2492
▁Chinese	-2493
▁climate	-2494
▁content	-2495
▁reading	-2496
▁experien	-2497
▁intelligence	-2498
▁particularly	-2499
lo	-2500
acy	-2501
anc	-2502
asc	-2503
iar	-2504
ips	-2505
fact	-2506
▁bed	-2507
▁dom	-2508
▁eye	-2509
▁sat	-2510
▁fram	-2511
▁rele	-2512
▁wait	-2513
▁slide	-2514
ilities	-2515
▁likely	-2516
▁remark	-2517
▁passion	-2518
▁suggest	-2519
▁continue	-2520
▁architecture	-2521
rel	-2522
rom	-2523
uit	-2524
une	-2525
pris	-2526
racy	-2527
▁lea	-2528
▁Life	-2529
▁mine	-2530
▁pack	-2531
▁prom	-2532
▁seat	-2533
▁Maybe	-2534
▁earli	-2535
▁local	-2536
▁print	-2537
▁commer	-2538
▁detail	-2539
▁series	-2540
▁largest	-2541
▁evidence	-2542
▁conscious	-2543
▁somewhere	-2544
▁eventually	-2545
inc	-2546
joy	-2547
pre	-2548
ted	-2549
▁Sw	-2550
▁196	-2551
▁sky	-2552
urban	-2553
▁jump	-2554
▁onto	-2555
▁aware	-2556
▁wants	-2557
▁beings	-2558
▁transl	-2559
olutions	-2560
▁complic	-2561
▁discuss	-2562
▁function	-2563
▁buildings	-2564
▁represent	-2565
▁development	-2566
imb	-2567
oud	-2568
ped	-2569
orry	-2570
▁Our	-2571
▁Ste	-2572
▁neg	-2573
▁sle	-2574
itary	-2575
▁hosp	-2576
▁magn	-2577
▁sour	-2578
▁meant	-2579
▁moved	-2580
▁occur	-2581
▁simpl	-2582
▁trees	-2583
▁mechan	-2584
▁models	-2585
▁remain	-2586
▁propert	-2587
▁schools	-2588
▁Americans	-2589
▁available	-2590
▁atmosphere	-2591
▁dimensions	-2592
ny	-2593
ees	-2594
▁Im	-2595
ploy	-2596
▁fle	-2597
▁lay	-2598
erson	-2599
ndous	-2600
stein	-2601
▁Good	-2602
▁fill	-2603
▁fold	-2604
▁goal	-2605
▁lose	-2606
▁webs	-2607
▁smell	-2608
▁beauty	-2609
▁concer	-2610
▁starts	-2611
▁leaders	-2612
▁smaller	-2613
▁student	-2614
▁galaxies	-2615
▁religion	-2616
▁solution	-2617
▁fundamental	-2618
.,	-2619
aul	-2620
ids	-2621
mic	-2622
▁et	-2623
ners	-2624
▁500	-2625
▁lif	-2626
useum	-2627
▁Even	-2628
▁fuel	-2629
▁gang	-2630
▁port	-2631
▁push	-2632
icient	-2633
▁enjoy	-2634
▁final	-2635
▁molec	-2636
▁table	-2637
ruction	-2638
▁asking	-2639
▁images	-2640
▁plants	-2641
▁square	-2642
▁strange	-2643
▁continent	-2644
We	-2645
for	-2646
uss	-2647
▁Mc	-2648
▁aw	-2649
eral	-2650
▁Car	-2651
▁hig	-2652
▁kil	-2653
aking	-2654
ister	-2655
rying	-2656
ission	-2657
▁clean	-2658
▁carbon	-2659
▁descri	-2660
▁higher	-2661
▁screen	-2662
▁sounds	-2663
▁changing	-2664
▁ang	-2665
▁eth	-2666
▁mal	-2667
▁unf	-2668
board	-2669
iation	-2670
ishing	-2671
▁sorts	-2672
▁weren	-2673
pective	-2674
▁famous	-2675
▁forest	-2676
▁notice	-2677
▁vision	-2678
▁mention	-2679
▁surpris	-2680
urt	-2681
▁TV	-2682
▁Don	-2683
▁ann	-2684
▁son	-2685
▁phen	-2686
▁basic	-2687
▁moral	-2688
ologists	-2689
▁Another	-2690
▁journey	-2691
▁objects	-2692
▁private	-2693
remendous	-2694
▁mathemat	-2695
▁standing	-2696
▁fantastic	-2697
▁scientific	-2698
hib	-2699
nal	-2700
ued	-2701
▁13	-2702
▁80	-2703
▁DH	-2704
ency	-2705
play	-2706
▁Ein	-2707
▁Was	-2708
▁bur	-2709
▁swe	-2710
▁veh	-2711
antly	-2712
itten	-2713
▁init	-2714
▁Somet	-2715
▁smart	-2716
▁camera	-2717
▁closer	-2718
▁killed	-2719
▁introdu	-2720
▁transform	-2721
▁tremendous	-2722
unk	-2723
▁14	-2724
▁BF	-2725
▁bal	-2726
ufact	-2727
▁crow	-2728
▁hero	-2729
▁kept	-2730
▁late	-2731
▁meth	-2732
▁Those	-2733
▁concl	-2734
▁hydro	-2735
▁instr	-2736
▁ready	-2737
▁choice	-2738
▁immedi	-2739
▁trouble	-2740
▁Einstein	-2741
▁creative	-2742
▁phenomen	-2743
▁signific	-2744
▁solutions	-2745
▁complicated	-2746
SA	-2747
ify	-2748
▁pu	-2749
akes	-2750
▁etc	-2751
▁hit	-2752
urity	-2753
▁apart	-2754
▁robot	-2755
▁stars	-2756
▁bought	-2757
▁walked	-2758
▁examples	-2759
▁therefore	-2760
win	-2761
▁pa	-2762
inct	-2763
ires	-2764
rect	-2765
▁Red	-2766
▁fra	-2767
▁sch	-2768
▁sou	-2769
cient	-2770
▁atom	-2771
▁bank	-2772
▁grew	-2773
▁legs	-2774
▁luck	-2775
▁send	-2776
▁stri	-2777
▁adult	-2778
▁airpl	-2779
▁cause	-2780
▁shown	-2781
▁urban	-2782
▁bacter	-2783
▁brains	-2784
▁device	-2785
▁office	-2786
▁Nigeria	-2787
▁describ	-2788
▁explore	-2789
▁medical	-2790
▁straight	-2791
5,	-2792
▁Q	-2793
ama	-2794
eny	-2795
▁Mo	-2796
ateg	-2797
cest	-2798
ches	-2799
iced	-2800
iers	-2801
lebr	-2802
thes	-2803
▁del	-2804
▁log	-2805
▁mis	-2806
▁pan	-2807
▁fine	-2808
▁mist	-2809
▁moon	-2810
▁wire	-2811
terday	-2812
▁1,000	-2813
▁bread	-2814
▁broad	-2815
▁magic	-2816
▁tells	-2817
▁total	-2818
▁trick	-2819
▁afford	-2820
▁causes	-2821
▁charge	-2822
▁destro	-2823
▁forces	-2824
▁report	-2825
▁convers	-2826
▁survive	-2827
▁hospital	-2828
▁potential	-2829
▁extraordinary	-2830
▁Le	-2831
▁198	-2832
▁Act	-2833
▁Cam	-2834
▁Mar	-2835
▁sad	-2836
▁AIDS	-2837
▁code	-2838
▁laws	-2839
▁sand	-2840
▁After	-2841
▁blood	-2842
▁cross	-2843
▁older	-2844
▁plant	-2845
▁worse	-2846
ossible	-2847
▁ancest	-2848
▁celebr	-2849
▁expand	-2850
▁flight	-2851
▁account	-2852
▁achieve	-2853
▁feature	-2854
▁discover	-2855
▁direction	-2856
▁expensive	-2857
▁biological	-2858
▁conditions	-2859
▁everywhere	-2860
▁neighborhood	-2861
▁X	-2862
fer	-2863
kay	-2864
▁ec	-2865
▁fa	-2866
eter	-2867
iles	-2868
iven	-2869
▁cat	-2870
▁fix	-2871
▁mut	-2872
▁pri	-2873
▁ske	-2874
▁Paul	-2875
▁hell	-2876
▁phil	-2877
▁purp	-2878
▁roll	-2879
▁block	-2880
▁cheap	-2881
▁chimp	-2882
▁ended	-2883
▁medic	-2884
oration	-2885
▁biggest	-2886
▁message	-2887
▁results	-2888
▁manufact	-2889
▁perspective	-2890
oo	-2891
▁Ad	-2892
ised	-2893
itan	-2894
more	-2895
onst	-2896
▁Dar	-2897
▁Har	-2898
▁Sat	-2899
▁War	-2900
▁hop	-2901
▁whe	-2902
▁baby	-2903
▁skin	-2904
▁stru	-2905
▁trip	-2906
▁above	-2907
▁check	-2908
▁faster	-2909
▁flying	-2910
▁prison	-2911
▁allowed	-2912
▁earlier	-2913
▁farmers	-2914
▁finding	-2915
▁mission	-2916
▁usually	-2917
▁website	-2918
▁National	-2919
▁progress	-2920
▁suddenly	-2921
▁watching	-2922
▁democracy	-2923
lam	-2924
uly	-2925
▁21	-2926
▁dro	-2927
▁emp	-2928
iforn	-2929
iling	-2930
ounds	-2931
▁appl	-2932
▁symb	-2933
▁upon	-2934
▁ahead	-2935
▁crazy	-2936
▁quant	-2937
▁range	-2938
▁accept	-2939
▁allows	-2940
▁temper	-2941
▁wealth	-2942
▁context	-2943
▁Californ	-2944
▁military	-2945
▁products	-2946
▁religious	-2947
▁remarkable	-2948
▁intelligent	-2949
▁civilization	-2950
▁Ab	-2951
▁Co	-2952
▁Dr	-2953
ping	-2954
wise	-2955
ynam	-2956
conds	-2957
▁West	-2958
▁copy	-2959
▁heat	-2960
▁assum	-2961
▁indeed	-2962
▁notion	-2963
▁societ	-2964
atically	-2965
▁meeting	-2966
▁various	-2967
▁written	-2968
▁decision	-2969
▁electron	-2970
▁families	-2971
▁favorite	-2972
▁industrial	-2973
ett	-2974
ils	-2975
ugg	-2976
aria	-2977
time	-2978
ured	-2979
▁Dav	-2980
▁lad	-2981
▁ran	-2982
▁rid	-2983
▁sal	-2984
oming	-2985
▁cold	-2986
▁fasc	-2987
▁term	-2988
▁zero	-2989
isions	-2990
istics	-2991
ricult	-2992
▁chair	-2993
▁floor	-2994
▁magaz	-2995
▁react	-2996
▁summer	-2997
▁threat	-2998
▁evolved	-2999
▁figured	-3000
▁himself	-3001
▁patient	-3002
▁familiar	-3003
▁instance	-3004
▁possibly	-3005
▁security	-3006
rastructure	-3007
▁California	-3008
▁revolution	-3009
▁traditional	-3010
▁organization	-3011
ma	-3012
mp	-3013
ibr	-3014
lim	-3015
▁cy	-3016
itiz	-3017
▁300	-3018
rench	-3019
▁bomb	-3020
▁uses	-3021
▁wife	-3022
▁cover	-3023
▁crash	-3024
▁dynam	-3025
▁throw	-3026
▁voice	-3027
▁clearly	-3028
▁publish	-3029
▁workers	-3030
▁bacteria	-3031
▁increase	-3032
▁connected	-3033
▁dangerous	-3034
▁engineers	-3035
▁yesterday	-3036
▁engineering	-3037
▁immediately	-3038
▁temperature	-3039
ios	-3040
men	-3041
pox	-3042
▁24	-3043
cise	-3044
erve	-3045
fort	-3046
▁Gen	-3047
▁Sun	-3048
▁boy	-3049
▁fit	-3050
▁gas	-3051
▁vac	-3052
epend	-3053
icles	-3054
orous	-3055
rated	-3056
right	-3057
▁Bang	-3058
▁Your	-3059
▁gent	-3060
▁rain	-3061
▁sick	-3062
vision	-3063
▁Again	-3064
▁glass	-3065
▁gradu	-3066
▁10,000	-3067
▁invent	-3068
▁service	-3069
▁activity	-3070
▁anywhere	-3071
▁terrible	-3072
▁competition	-3073
sc	-3074
bel	-3075
dom	-3076
eth	-3077
▁NA	-3078
▁Pr	-3079
alley	-3080
aries	-3081
orrow	-3082
▁drop	-3083
▁prev	-3084
▁wild	-3085
▁citiz	-3086
▁dinos	-3087
▁polit	-3088
▁quote	-3089
▁muscle	-3090
▁remind	-3091
▁stupid	-3092
▁switch	-3093
▁symbol	-3094
▁useful	-3095
▁Audience	-3096
▁chemical	-3097
▁pressure	-3098
ortunately	-3099
▁commercial	-3100
▁impossible	-3101
▁individuals	-3102
▁consciousness	-3103
▁infrastructure	-3104
Th	-3105
aph	-3106
gra	-3107
ley	-3108
raq	-3109
ulf	-3110
empt	-3111
▁197	-3112
▁Are	-3113
▁Big	-3114
▁led	-3115
▁pen	-3116
▁unc	-3117
ctors	-3118
icity	-3119
▁Brit	-3120
▁Look	-3121
▁Russ	-3122
▁nest	-3123
dimens	-3124
▁Franc	-3125
▁board	-3126
▁breat	-3127
▁optim	-3128
▁peace	-3129
▁sorry	-3130
▁spect	-3131
▁worst	-3132
▁actual	-3133
▁bridge	-3134
▁expert	-3135
▁fascin	-3136
▁policy	-3137
▁unique	-3138
▁origami	-3139
▁agricult	-3140
▁directly	-3141
▁greatest	-3142
▁produced	-3143
▁distribut	-3144
▁increasing	-3145
▁successful	-3146
cra	-3147
eff	-3148
come	-3149
icon	-3150
oper	-3151
tail	-3152
▁sil	-3153
anced	-3154
ising	-3155
itute	-3156
▁anal	-3157
▁none	-3158
▁rise	-3159
▁safe	-3160
▁seed	-3161
▁shot	-3162
assion	-3163
▁North	-3164
▁climb	-3165
▁pages	-3166
▁depend	-3167
▁galaxy	-3168
▁return	-3169
▁seemed	-3170
▁concent	-3171
▁virtual	-3172
▁consider	-3173
▁position	-3174
▁television	-3175
ky	-3176
oid	-3177
pro	-3178
ndom	-3179
rams	-3180
▁bee	-3181
▁mob	-3182
aling	-3183
▁Mich	-3184
▁fort	-3185
▁star	-3186
▁tick	-3187
▁wood	-3188
▁David	-3189
▁below	-3190
▁blind	-3191
▁influ	-3192
imately	-3193
▁random	-3194
▁spirit	-3195
▁terror	-3196
▁window	-3197
izations	-3198
▁Francis	-3199
▁original	-3200
▁patterns	-3201
▁organisms	-3202
▁societies	-3203
▁electricity	-3204
agn	-3205
ask	-3206
ancy	-3207
ball	-3208
unte	-3209
▁cos	-3210
▁gun	-3211
aging	-3212
attle	-3213
itted	-3214
▁Iraq	-3215
▁base	-3216
▁capt	-3217
▁coff	-3218
▁fear	-3219
▁shap	-3220
▁capac	-3221
▁sleep	-3222
▁action	-3223
▁region	-3224
▁source	-3225
▁taught	-3226
▁diction	-3227
▁warming	-3228
▁creation	-3229
▁humanity	-3230
▁relative	-3231
▁decisions	-3232
▁University	-3233
▁background	-3234
▁creativity	-3235
▁necessarily	-3236
0,	-3237
bb	-3238
ola	-3239
▁'9	-3240
▁KB	-3241
cles	-3242
nces	-3243
oura	-3244
rest	-3245
▁que	-3246
arter	-3247
celer	-3248
enter	-3249
▁City	-3250
▁John	-3251
▁hall	-3252
▁heav	-3253
▁roof	-3254
ightly	-3255
▁costs	-3256
▁plane	-3257
▁track	-3258
▁trust	-3259
▁author	-3260
▁employ	-3261
▁memory	-3262
▁museum	-3263
▁driving	-3264
▁gravity	-3265
▁seconds	-3266
▁chimpanz	-3267
▁describe	-3268
▁contribut	-3269
▁treatment	-3270
▁conversation	-3271
ius	-3272
ube	-3273
▁1,	-3274
izes	-3275
oint	-3276
rees	-3277
term	-3278
ulpt	-3279
▁doc	-3280
▁ign	-3281
▁mid	-3282
ondon	-3283
ulate	-3284
▁From	-3285
▁evil	-3286
cience	-3287
▁Bible	-3288
▁activ	-3289
▁drink	-3290
▁exhib	-3291
▁lines	-3292
illiant	-3293
omantic	-3294
▁London	-3295
▁genome	-3296
▁gotten	-3297
▁played	-3298
▁sculpt	-3299
▁skills	-3300
▁contain	-3301
▁demonst	-3302
▁genetic	-3303
▁purpose	-3304
▁restaur	-3305
▁willing	-3306
▁diseases	-3307
▁national	-3308
▁patients	-3309
▁sequence	-3310
▁transport	-3311
dimensional	-3312
IT	-3313
wh	-3314
iot	-3315
alyz	-3316
ford	-3317
sequ	-3318
▁Bar	-3319
▁Dan	-3320
▁div	-3321
▁imm	-3322
▁mix	-3323
▁rot	-3324
▁vag	-3325
arian	-3326
atell	-3327
▁Cong	-3328
▁More	-3329
▁shop	-3330
▁vari	-3331
estern	-3332
▁liber	-3333
▁truly	-3334
▁types	-3335
▁waste	-3336
itation	-3337
lection	-3338
▁Anyway	-3339
▁French	-3340
▁decide	-3341
▁effort	-3342
▁satell	-3343
▁attempt	-3344
▁Africans	-3345
▁becoming	-3346
▁billions	-3347
▁designer	-3348
▁training	-3349
▁violence	-3350
▁entertain	-3351
▁interview	-3352
▁connection	-3353
▁understood	-3354
▁environmental	-3355
▁international	-3356
It	-3357
▁En	-3358
▁RB	-3359
ceed	-3360
vest	-3361
▁Bra	-3362
▁Did	-3363
▁Wik	-3364
▁fat	-3365
▁tom	-3366
eless	-3367
night	-3368
prene	-3369
thern	-3370
▁Mont	-3371
▁Very	-3372
▁coun	-3373
▁dram	-3374
▁hous	-3375
▁poll	-3376
▁drugs	-3377
▁motiv	-3378
reprene	-3379
▁Darwin	-3380
▁opened	-3381
▁philos	-3382
▁college	-3383
▁greater	-3384
▁knowing	-3385
▁popular	-3386
▁respect	-3387
▁teacher	-3388
▁Actually	-3389
▁citizens	-3390
▁controll	-3391
▁magazine	-3392
▁medicine	-3393
▁programs	-3394
▁soldiers	-3395
▁teaching	-3396
▁including	-3397
▁principle	-3398
▁scientist	-3399
▁seriously	-3400
na	-3401
ps	-3402
zz	-3403
Why	-3404
ray	-3405
▁Gu	-3406
ened	-3407
▁Fin	-3408
▁mir	-3409
craft	-3410
▁Bill	-3411
▁NASA	-3412
▁desp	-3413
▁yell	-3414
▁Steve	-3415
▁apply	-3416
▁funny	-3417
▁maint	-3418
ivalent	-3419
▁explan	-3420
▁method	-3421
▁colleag	-3422
▁noticed	-3423
▁cultural	-3424
▁inspired	-3425
▁smallpox	-3426
▁specific	-3427
▁Everybody	-3428
▁listening	-3429
▁compassion	-3430
▁innovation	-3431
▁throughout	-3432
hen	-3433
mon	-3434
off	-3435
▁HI	-3436
etry	-3437
▁Per	-3438
▁odd	-3439
iding	-3440
prise	-3441
▁blow	-3442
▁doub	-3443
▁gras	-3444
▁note	-3445
▁wine	-3446
▁cases	-3447
▁lower	-3448
▁lunch	-3449
▁north	-3450
▁altern	-3451
▁coffee	-3452
▁detect	-3453
▁determ	-3454
▁gentle	-3455
▁mostly	-3456
▁rights	-3457
▁address	-3458
▁ancient	-3459
▁dealing	-3460
▁express	-3461
▁malaria	-3462
▁planets	-3463
▁provide	-3464
▁creatures	-3465
▁diversity	-3466
▁following	-3467
▁languages	-3468
▁recognize	-3469
▁significant	-3470
▁opportunities	-3471
0.	-3472
How	-3473
gth	-3474
aker	-3475
ffic	-3476
tend	-3477
▁Eth	-3478
▁Ger	-3479
▁HIV	-3480
▁San	-3481
▁sus	-3482
▁thr	-3483
atory	-3484
ining	-3485
istan	-3486
▁cris	-3487
▁paid	-3488
▁race	-3489
▁wave	-3490
ession	-3491
rength	-3492
▁Micro	-3493
▁Think	-3494
▁brief	-3495
▁enter	-3496
▁leads	-3497
▁minds	-3498
hington	-3499
▁Thanks	-3500
▁appear	-3501
▁compon	-3502
▁dollar	-3503
▁easily	-3504
▁fairly	-3505
▁forget	-3506
▁secret	-3507
▁Redwood	-3508
▁acceler	-3509
▁article	-3510
▁destroy	-3511
▁effects	-3512
▁landsca	-3513
▁studies	-3514
▁partners	-3515
▁teachers	-3516
▁Washington	-3517
▁entreprene	-3518
▁equivalent	-3519
1,	-3520
af	-3521
kn	-3522
aim	-3523
edd	-3524
iop	-3525
ira	-3526
▁Pl	-3527
book	-3528
imin	-3529
orge	-3530
reci	-3531
▁400	-3532
▁Che	-3533
▁mig	-3534
▁ver	-3535
organ	-3536
ustom	-3537
▁gene	-3538
▁jobs	-3539
▁terr	-3540
itable	-3541
ulated	-3542
▁Islam	-3543
▁agree	-3544
▁confl	-3545
▁weird	-3546
▁artist	-3547
▁choose	-3548
▁collab	-3549
▁corner	-3550
▁double	-3551
▁eating	-3552
▁highly	-3553
▁multip	-3554
▁physic	-3555
▁replic	-3556
▁spring	-3557
▁weight	-3558
▁central	-3559
▁contact	-3560
▁missing	-3561
▁suppose	-3562
▁hydrogen	-3563
▁standard	-3564
▁strength	-3565
▁hopefully	-3566
▁psychology	-3567
▁imagination	-3568
▁performance	-3569
▁evolutionary	-3570
7,	-3571
aff	-3572
rie	-3573
▁AB	-3574
▁CO	-3575
▁Ne	-3576
▁Ug	-3577
cies	-3578
load	-3579
ores	-3580
raid	-3581
uman	-3582
▁nut	-3583
icken	-3584
inite	-3585
pping	-3586
▁East	-3587
▁Keny	-3588
▁beat	-3589
▁conc	-3590
▁prep	-3591
▁wide	-3592
anging	-3593
mother	-3594
ughter	-3595
▁Wikip	-3596
▁adapt	-3597
▁catch	-3598
▁colon	-3599
▁dying	-3600
▁email	-3601
▁grass	-3602
▁moves	-3603
▁prior	-3604
▁radio	-3605
▁rough	-3606
▁shall	-3607
▁whose	-3608
issions	-3609
▁bright	-3610
▁decade	-3611
▁honest	-3612
▁manage	-3613
▁metaph	-3614
▁movies	-3615
▁nation	-3616
▁sector	-3617
▁answers	-3618
▁balance	-3619
▁chemist	-3620
▁consequ	-3621
▁cooking	-3622
▁display	-3623
▁encoura	-3624
▁improve	-3625
▁kilomet	-3626
▁markets	-3627
▁prevent	-3628
▁finished	-3629
▁independ	-3630
▁particle	-3631
▁romantic	-3632
▁speaking	-3633
▁concerned	-3634
▁glamorous	-3635
▁photographs	-3636
▁presentation	-3637
ha	-3638
Don	-3639
ait	-3640
omy	-3641
yle	-3642
▁90	-3643
▁ir	-3644
anes	-3645
bert	-3646
edic	-3647
olds	-3648
soft	-3649
▁Des	-3650
▁Mus	-3651
▁Ser	-3652
▁Two	-3653
▁fab	-3654
▁pil	-3655
▁spl	-3656
▁web	-3657
antom	-3658
cules	-3659
ement	-3660
ulous	-3661
▁Asia	-3662
▁bees	-3663
▁hadn	-3664
ctions	-3665
▁grain	-3666
▁newsp	-3667
▁raise	-3668
▁theme	-3669
▁twice	-3670
artment	-3671
▁Ethiop	-3672
▁active	-3673
▁afraid	-3674
▁crisis	-3675
▁engage	-3676
▁online	-3677
▁photos	-3678
▁supply	-3679
▁values	-3680
▁journal	-3681
▁stopped	-3682
▁traffic	-3683
ibilities	-3684
▁painting	-3685
▁Wikipedia	-3686
▁efficient	-3687
▁production	-3688
▁experiments	-3689
▁grandmother	-3690
▁possibility	-3691
mit	-3692
oty	-3693
udd	-3694
▁ut	-3695
olve	-3696
requ	-3697
used	-3698
▁His	-3699
▁Ple	-3700
▁fem	-3701
▁tor	-3702
phone	-3703
ropri	-3704
ywood	-3705
▁gain	-3706
▁tast	-3707
▁weap	-3708
▁carry	-3709
▁inner	-3710
▁prize	-3711
▁prote	-3712
▁seats	-3713
▁broken	-3714
▁degree	-3715
▁therap	-3716
▁Instead	-3717
▁anymore	-3718
▁appreci	-3719
▁degrees	-3720
▁emotion	-3721
▁holding	-3722
▁organic	-3723
▁phantom	-3724
▁worried	-3725
▁argument	-3726
▁profound	-3727
▁Microsoft	-3728
▁brilliant	-3729
▁published	-3730
▁principles	-3731
2,	-3732
8,	-3733
ago	-3734
pan	-3735
tle	-3736
uls	-3737
▁70	-3738
▁SW	-3739
ager	-3740
anta	-3741
cell	-3742
iber	-3743
resh	-3744
uses	-3745
▁Her	-3746
▁dad	-3747
▁den	-3748
▁gar	-3749
▁ing	-3750
▁nan	-3751
ength	-3752
house	-3753
itude	-3754
verse	-3755
▁Aust	-3756
▁Bush	-3757
▁Char	-3758
▁Does	-3759
▁Many	-3760
▁flat	-3761
▁frag	-3762
▁gold	-3763
▁iron	-3764
▁join	-3765
▁rece	-3766
▁shel	-3767
atives	-3768
reedom	-3769
thetic	-3770
▁cloud	-3771
▁epide	-3772
▁oppos	-3773
ificial	-3774
▁Uganda	-3775
▁astron	-3776
▁glamour	-3777
▁respond	-3778
▁waiting	-3779
ification	-3780
▁capacity	-3781
▁elements	-3782
▁sunlight	-3783
▁emotional	-3784
▁intellect	-3785
▁molecules	-3786
4,	-3787
6,	-3788
my	-3789
xy	-3790
mar	-3791
uff	-3792
aced	-3793
cope	-3794
oman	-3795
pret	-3796
ront	-3797
urch	-3798
vard	-3799
vere	-3800
▁MIT	-3801
▁Tod	-3802
▁nor	-3803
▁tax	-3804
▁ten	-3805
ables	-3806
eared	-3807
idden	-3808
ystem	-3809
▁Will	-3810
▁disc	-3811
▁hole	-3812
▁loss	-3813
▁soil	-3814
▁weak	-3815
others	-3816
uments	-3817
▁Titan	-3818
▁faith	-3819
▁integ	-3820
▁labor	-3821
▁talks	-3822
▁visit	-3823
arrator	-3824
ologist	-3825
▁belief	-3826
▁career	-3827
▁cooper	-3828
▁custom	-3829
▁spaces	-3830
▁strugg	-3831
▁comfort	-3832
▁healthy	-3833
▁helping	-3834
▁shouldn	-3835
▁weather	-3836
▁practice	-3837
▁property	-3838
▁separate	-3839
▁surround	-3840
▁emissions	-3841
▁definition	-3842
▁surprising	-3843
ec	-3844
▁$	-3845
irt	-3846
uce	-3847
urd	-3848
▁Hy	-3849
aign	-3850
aurs	-3851
emic	-3852
oted	-3853
tery	-3854
▁Nat	-3855
▁bud	-3856
▁hey	-3857
▁hol	-3858
▁hom	-3859
▁joy	-3860
ening	-3861
oting	-3862
ously	-3863
place	-3864
throp	-3865
▁Have	-3866
▁Imag	-3867
▁Once	-3868
▁crit	-3869
▁forg	-3870
▁inse	-3871
▁kick	-3872
▁tens	-3873
▁tour	-3874
minist	-3875
▁Kenya	-3876
▁chann	-3877
▁click	-3878
▁neuro	-3879
▁saved	-3880
▁stuck	-3881
▁tough	-3882
connect	-3883
▁Howard	-3884
▁dinner	-3885
▁inform	-3886
▁inspir	-3887
▁propos	-3888
ographic	-3889
▁brother	-3890
▁quantum	-3891
lications	-3892
▁airplane	-3893
▁bringing	-3894
▁conflict	-3895
▁slightly	-3896
▁mentioned	-3897
▁molecular	-3898
▁otherwise	-3899
▁Everything	-3900
▁artificial	-3901
▁complexity	-3902
▁instrument	-3903
▁agriculture	-3904
▁responsible	-3905
▁transformation	-3906
9,	-3907
ald	-3908
ato	-3909
lex	-3910
reet	-3911
soci	-3912
uing	-3913
well	-3914
▁Nor	-3915
▁fro	-3916
▁reb	-3917
▁rhy	-3918
▁shr	-3919
umber	-3920
▁Park	-3921
▁adop	-3922
▁corn	-3923
▁diam	-3924
▁empt	-3925
▁rule	-3926
▁surf	-3927
▁whom	-3928
▁5,000	-3929
▁Green	-3930
▁awful	-3931
▁cards	-3932
▁girls	-3933
▁offic	-3934
▁orbit	-3935
▁ought	-3936
▁trade	-3937
▁worry	-3938
▁German	-3939
▁closed	-3940
▁damage	-3941
▁easier	-3942
▁mirror	-3943
▁sphere	-3944
▁However	-3945
▁Western	-3946
▁counter	-3947
▁creates	-3948
▁leaving	-3949
▁Francisco	-3950
▁described	-3951
▁designing	-3952
▁interpret	-3953
▁investment	-3954
▁phenomenon	-3955
▁alternative	-3956
▁communities	-3957
▁governments	-3958
▁mathematics	-3959
ae	-3960
fl	-3961
ux	-3962
car	-3963
iev	-3964
ked	-3965
set	-3966
zen	-3967
▁Me	-3968
▁Rw	-3969
band	-3970
hand	-3971
iest	-3972
▁bra	-3973
▁pig	-3974
▁sug	-3975
▁tit	-3976
ander	-3977
ently	-3978
gency	-3979
icago	-3980
iture	-3981
ograp	-3982
▁clin	-3983
▁coal	-3984
▁foss	-3985
▁furn	-3986
▁gift	-3987
▁host	-3988
▁libr	-3989
▁mill	-3990
▁plat	-3991
▁soul	-3992
idents	-3993
▁avoid	-3994
▁basis	-3995
▁corru	-3996
▁dance	-3997
▁hotel	-3998
▁lucky	-3999
▁motor	-4000
▁mouth	-4001
▁pitch	-4002
▁steel	-4003
mission	-4004
▁circle	-4005
▁colony	-4006
▁consid	-4007
▁desert	-4008
▁income	-4009
▁passed	-4010
ervation	-4011
▁Chicago	-4012
▁Imagine	-4013
▁drawing	-4014
▁factory	-4015
▁freedom	-4016
▁reflect	-4017
▁streets	-4018
▁studied	-4019
▁typical	-4020
▁volunte	-4021
▁Anderson	-4022
▁appropri	-4023
▁document	-4024
▁launched	-4025
▁normally	-4026
▁surprise	-4027
▁construct	-4028
▁dinosaurs	-4029
▁suffering	-4030
▁colleagues	-4031
▁kilometers	-4032
▁statistics	-4033
500	-4034
ays	-4035
iat	-4036
ica	-4037
itz	-4038
key	-4039
now	-4040
oom	-4041
pes	-4042
top	-4043
ugh	-4044
▁1.	-4045
▁Sc	-4046
▁Te	-4047
Look	-4048
back	-4049
enty	-4050
erer	-4051
itor	-4052
pper	-4053
▁150	-4054
▁600	-4055
▁See	-4056
▁amb	-4057
▁bag	-4058
▁bio	-4059
▁cry	-4060
▁los	-4061
▁sac	-4062
▁tar	-4063
agers	-4064
odies	-4065
▁Okay	-4066
▁farm	-4067
▁nerv	-4068
▁nose	-4069
▁pump	-4070
▁vent	-4071
ipment	-4072
▁films	-4073
▁river	-4074
▁solid	-4075
▁Valley	-4076
▁advant	-4077
▁aspect	-4078
▁compar	-4079
▁mental	-4080
▁rocket	-4081
▁slides	-4082
▁slowly	-4083
▁unlike	-4084
▁Harvard	-4085
▁benefit	-4086
▁highest	-4087
▁massive	-4088
▁related	-4089
▁vehicle	-4090
▁Japanese	-4091
▁Narrator	-4092
▁campaign	-4093
▁pleasure	-4094
▁previous	-4095
▁existence	-4096
▁perfectly	-4097
▁ultimately	-4098
▁fascinating	-4099
▁institutions	-4100
▁possibilities	-4101
emb	-4102
ino	-4103
▁45	-4104
This	-4105
road	-4106
uild	-4107
▁App	-4108
▁Bas	-4109
▁aud	-4110
etics	-4111
ework	-4112
gence	-4113
iable	-4114
▁Stan	-4115
▁anti	-4116
▁band	-4117
▁bits	-4118
▁boys	-4119
▁dial	-4120
▁edge	-4121
▁lack	-4122
▁purs	-4123
▁vast	-4124
ashion	-4125
ording	-4126
owered	-4127
▁Today	-4128
▁feels	-4129
▁heads	-4130
▁legal	-4131
▁match	-4132
▁rapid	-4133
▁rhyth	-4134
▁staff	-4135
▁walls	-4136
▁Middle	-4137
▁demand	-4138
▁finish	-4139
▁fourth	-4140
▁levels	-4141
▁medium	-4142
▁thinks	-4143
▁worlds	-4144
▁forever	-4145
▁succeed	-4146
▁treated	-4147
▁turning	-4148
▁Ethiopia	-4149
▁accident	-4150
▁believed	-4151
▁equation	-4152
▁infinite	-4153
▁metaphor	-4154
▁occurred	-4155
▁ordinary	-4156
▁organism	-4157
▁Institute	-4158
▁ancestors	-4159
▁framework	-4160
▁producing	-4161
▁satellite	-4162
▁afterwards	-4163
▁discussion	-4164
▁experiences	-4165
▁entertainment	-4166
2.	-4167
60	-4168
add	-4169
ael	-4170
ams	-4171
arm	-4172
ech	-4173
hes	-4174
mal	-4175
reg	-4176
▁'8	-4177
▁Fl	-4178
▁Gh	-4179
▁Tr	-4180
airs	-4181
cycl	-4182
semb	-4183
▁Boy	-4184
▁Con	-4185
▁Par	-4186
▁alg	-4187
▁lat	-4188
▁Kore	-4189
▁Phil	-4190
▁abst	-4191
▁diet	-4192
▁king	-4193
▁load	-4194
▁ring	-4195
▁spot	-4196
ifying	-4197
urally	-4198
▁accom	-4199
▁dedic	-4200
▁fract	-4201
▁memes	-4202
▁round	-4203
▁serve	-4204
▁truck	-4205
▁astero	-4206
▁caught	-4207
▁doctor	-4208
▁helped	-4209
▁histor	-4210
▁motion	-4211
▁nearly	-4212
▁picked	-4213
▁player	-4214
▁versus	-4215
▁England	-4216
▁Michael	-4217
▁nervous	-4218
▁prototy	-4219
▁synthes	-4220
▁administ	-4221
▁studying	-4222
▁dimension	-4223
▁equipment	-4224
▁constantly	-4225
▁explanation	-4226
3,	-4227
que	-4228
vey	-4229
ania	-4230
cend	-4231
exic	-4232
rian	-4233
ysis	-4234
estic	-4235
gging	-4236
▁Pres	-4237
▁boat	-4238
▁clip	-4239
▁gard	-4240
▁hate	-4241
▁lady	-4242
▁pray	-4243
▁soph	-4244
▁tall	-4245
▁tape	-4246
▁James	-4247
▁aging	-4248
▁diver	-4249
▁grown	-4250
▁helps	-4251
▁laugh	-4252
▁metal	-4253
▁mouse	-4254
▁paint	-4255
raction	-4256
▁Muslim	-4257
▁Saturn	-4258
▁adults	-4259
▁advert	-4260
▁attach	-4261
▁debate	-4262
▁fields	-4263
▁pounds	-4264
▁sister	-4265
▁string	-4266
▁100,000	-4267
▁automob	-4268
▁correct	-4269
▁focused	-4270
▁hearing	-4271
▁reached	-4272
▁entirely	-4273
▁particip	-4274
▁services	-4275
▁Sometimes	-4276
▁condition	-4277
▁invention	-4278
▁landscape	-4279
▁organized	-4280
▁architects	-4281
▁dictionary	-4282
▁sustainable	-4283
▁relationships	-4284
/1	-4285
oe	-4286
log	-4287
▁IM	-4288
aven	-4289
cket	-4290
gged	-4291
imal	-4292
olks	-4293
▁Lab	-4294
▁Lar	-4295
▁hem	-4296
alled	-4297
based	-4298
known	-4299
othes	-4300
▁chap	-4301
▁desk	-4302
▁gall	-4303
▁joke	-4304
▁symm	-4305
▁tail	-4306
▁tons	-4307
▁warm	-4308
change	-4309
ildren	-4310
ribute	-4311
▁beach	-4312
▁categ	-4313
▁chain	-4314
▁domin	-4315
▁empty	-4316
▁finan	-4317
▁giant	-4318
▁loved	-4319
▁split	-4320
▁brings	-4321
▁commod	-4322
▁facing	-4323
▁vagina	-4324
▁yellow	-4325
▁dynamic	-4326
▁fashion	-4327
▁managed	-4328
▁replace	-4329
▁roughly	-4330
▁selling	-4331
▁benefits	-4332
▁compared	-4333
▁daughter	-4334
▁feelings	-4335
▁measured	-4336
▁planning	-4337
▁prepared	-4338
▁spending	-4339
▁survival	-4340
▁chemistry	-4341
▁sophistic	-4342
▁telephone	-4343
▁unfortunately	-4344
.'	-4345
1.	-4346
5.	-4347
SD	-4348
rad	-4349
uge	-4350
That	-4351
abet	-4352
anch	-4353
apse	-4354
olic	-4355
▁194	-4356
▁Col	-4357
▁Vir	-4358
▁agg	-4359
▁ble	-4360
▁fed	-4361
▁oxy	-4362
▁sam	-4363
anish	-4364
lands	-4365
▁Each	-4366
▁Gore	-4367
▁boom	-4368
▁fell	-4369
▁lens	-4370
▁puts	-4371
▁rare	-4372
▁tent	-4373
porary	-4374
▁Inter	-4375
▁Three	-4376
▁bucks	-4377
▁clock	-4378
▁crowd	-4379
▁frequ	-4380
▁ideal	-4381
▁indic	-4382
▁offer	-4383
▁parad	-4384
▁stood	-4385
ception	-4386
▁assign	-4387
▁bodies	-4388
▁deeply	-4389
▁exists	-4390
▁police	-4391
▁reduce	-4392
▁regard	-4393
▁skelet	-4394
▁unless	-4395
▁arrived	-4396
▁compare	-4397
▁element	-4398
▁privile	-4399
▁singing	-4400
▁addition	-4401
▁creature	-4402
▁distance	-4403
▁epidemic	-4404
▁identity	-4405
▁wireless	-4406
▁technical	-4407
▁challenges	-4408
▁conclusion	-4409
▁simplicity	-4410
▁combination	-4411
▁differences	-4412
▁intellectual	-4413
▁automatically	-4414
▁organizations	-4415
9.	-4416
la	-4417
dig	-4418
nes	-4419
ota	-4420
pet	-4421
uum	-4422
▁Ke	-4423
▁LG	-4424
cast	-4425
omas	-4426
rict	-4427
what	-4428
▁Art	-4429
▁Ber	-4430
▁Dis	-4431
▁Haw	-4432
▁Mac	-4433
▁Mil	-4434
▁Res	-4435
▁ski	-4436
▁tap	-4437
apers	-4438
print	-4439
ution	-4440
water	-4441
▁2000	-4442
▁Gene	-4443
▁Gold	-4444
▁Over	-4445
▁athe	-4446
▁cosm	-4447
▁flew	-4448
▁foie	-4449
▁harm	-4450
▁hasn	-4451
▁ment	-4452
▁opin	-4453
▁pian	-4454
▁reve	-4455
▁tiss	-4456
▁toss	-4457
herent	-4458
▁Great	-4459
▁Mexic	-4460
▁Their	-4461
▁bound	-4462
▁crack	-4463
▁cycle	-4464
▁heavy	-4465
▁liked	-4466
▁party	-4467
▁shock	-4468
▁users	-4469
ography	-4470
▁Rwanda	-4471
▁associ	-4472
▁budget	-4473
▁caused	-4474
▁corpor	-4475
▁events	-4476
▁factor	-4477
▁master	-4478
▁meters	-4479
▁mobile	-4480
▁proper	-4481
▁robots	-4482
▁shared	-4483
chnology	-4484
▁capable	-4485
▁centers	-4486
▁designs	-4487
▁fingers	-4488
▁precise	-4489
▁quarter	-4490
▁networks	-4491
▁philosop	-4492
▁resource	-4493
▁Something	-4494
▁advantage	-4495
▁effective	-4496
▁furniture	-4497
▁influence	-4498
▁necessary	-4499
▁newspaper	-4500
▁considered	-4501
▁restaurant	-4502
▁simulation	-4503
▁chimpanzees	-4504
▁differently	-4505
▁independent	-4506
▁technological	-4507
▁responsibility	-4508
If	-4509
do	-4510
ze	-4511
can	-4512
oot	-4513
uct	-4514
zil	-4515
▁Fe	-4516
ason	-4517
etch	-4518
fish	-4519
kins	-4520
ript	-4521
▁10,	-4522
▁Bon	-4523
▁Jim	-4524
▁Law	-4525
▁Rem	-4526
▁alt	-4527
▁cow	-4528
▁cru	-4529
▁cup	-4530
▁fir	-4531
▁hus	-4532
▁jud	-4533
▁ped	-4534
▁pun	-4535
▁tow	-4536
essed	-4537
scale	-4538
▁Alex	-4539
▁Bank	-4540
▁Holl	-4541
▁Last	-4542
▁cock	-4543
▁enem	-4544
▁intu	-4545
▁item	-4546
▁limb	-4547
▁male	-4548
▁ship	-4549
▁teen	-4550
alyzed	-4551
believ	-4552
isible	-4553
ounced	-4554
▁Video	-4555
▁argue	-4556
▁clust	-4557
▁curve	-4558
▁depth	-4559
▁genoc	-4560
▁habit	-4561
▁novel	-4562
▁rural	-4563
▁subst	-4564
▁teles	-4565
ptember	-4566
▁Please	-4567
▁contem	-4568
▁filled	-4569
▁illust	-4570
▁infect	-4571
▁letter	-4572
▁prices	-4573
▁raised	-4574
▁saving	-4575
▁shapes	-4576
ographer	-4577
▁choices	-4578
▁devices	-4579
▁electro	-4580
▁keeping	-4581
▁opening	-4582
▁partner	-4583
▁reverse	-4584
▁disaster	-4585
▁emotions	-4586
▁everyday	-4587
▁molecule	-4588
▁opposite	-4589
▁tomorrow	-4590
▁ultimate	-4591
▁computing	-4592
▁explained	-4593
▁interface	-4594
▁selection	-4595
▁wondering	-4596
▁personally	-4597
▁properties	-4598
3.	-4599
EO	-4600
ham	-4601
ops	-4602
▁Su	-4603
▁ax	-4604
▁ur	-4605
elly	-4606
esus	-4607
prof	-4608
▁Jew	-4609
▁Sim	-4610
▁dry	-4611
▁era	-4612
▁hyp	-4613
▁mat	-4614
▁mer	-4615
▁ooh	-4616
▁tum	-4617
allel	-4618
gment	-4619
oking	-4620
rooms	-4621
▁Five	-4622
▁Jeff	-4623
▁bone	-4624
▁cand	-4625
▁cave	-4626
▁club	-4627
▁cred	-4628
▁fake	-4629
▁hurt	-4630
▁lock	-4631
▁scan	-4632
▁spin	-4633
▁stro	-4634
▁unex	-4635
▁vert	-4636
ipping	-4637
▁Canad	-4638
▁blogs	-4639
▁calls	-4640
▁embra	-4641
▁faces	-4642
▁folks	-4643
▁links	-4644
▁negot	-4645
▁prove	-4646
▁reven	-4647
▁steps	-4648
▁volum	-4649
osystem	-4650
▁Brazil	-4651
▁Center	-4652
▁acting	-4653
▁agreed	-4654
▁bottle	-4655
▁commit	-4656
▁compos	-4657
▁driven	-4658
▁failed	-4659
▁formed	-4660
▁hoping	-4661
▁lesson	-4662
▁reward	-4663
▁sexual	-4664
▁states	-4665
▁vacuum	-4666
▁Austral	-4667
▁General	-4668
▁cameras	-4669
▁chicken	-4670
▁circles	-4671
▁covered	-4672
▁curious	-4673
▁cutting	-4674
▁evening	-4675
▁intense	-4676
▁sharing	-4677
▁theater	-4678
▁variety	-4679
▁watched	-4680
▁advanced	-4681
▁emerging	-4682
▁features	-4683
▁graduate	-4684
▁skeletal	-4685
▁somewhat	-4686
▁unbeliev	-4687
▁President	-4688
▁September	-4689
▁according	-4690
▁childhood	-4691
▁depressed	-4692
▁invisible	-4693
▁components	-4694
▁foundation	-4695
▁introduced	-4696
▁transition	-4697
▁university	-4698
▁exploration	-4699
▁importantly	-4700
▁professional	-4701
▁communication	-4702
Do	-4703
ek	-4704
ij	-4705
rs	-4706
100	-4707
alt	-4708
bur	-4709
nam	-4710
oly	-4711
sun	-4712
Yeah	-4713
ises	-4714
lain	-4715
onds	-4716
orts	-4717
▁Get	-4718
▁Int	-4719
▁bul	-4720
▁lie	-4721
▁pip	-4722
▁und	-4723
digit	-4724
illed	-4725
ratic	-4726
▁Afgh	-4727
▁Also	-4728
▁Amaz	-4729
▁Ange	-4730
▁Come	-4731
▁King	-4732
▁core	-4733
▁drug	-4734
▁held	-4735
▁inev	-4736
▁liqu	-4737
▁meat	-4738
▁myth	-4739
▁pile	-4740
▁prem	-4741
▁stim	-4742
▁task	-4743
▁tsun	-4744
▁vibr	-4745
icians	-4746
▁2,000	-4747
▁Union	-4748
▁Would	-4749
▁equal	-4750
▁expon	-4751
▁honor	-4752
▁initi	-4753
▁lifet	-4754
▁memor	-4755
▁photo	-4756
▁sauce	-4757
▁spoke	-4758
▁stone	-4759
▁trial	-4760
▁George	-4761
▁Thomas	-4762
▁Virgin	-4763
▁circum	-4764
▁corres	-4765
▁desire	-4766
▁length	-4767
▁oxygen	-4768
▁prefer	-4769
▁pulled	-4770
▁remote	-4771
▁scales	-4772
▁despite	-4773
▁dropped	-4774
▁library	-4775
▁moments	-4776
▁opposed	-4777
▁regular	-4778
▁tonight	-4779
▁contract	-4780
▁estimate	-4781
▁negative	-4782
▁reaction	-4783
▁vehicles	-4784
▁carefully	-4785
▁president	-4786
▁processes	-4787
▁collective	-4788
▁importance	-4789
▁productive	-4790
▁appropriate	-4791
▁generations	-4792
▁interaction	-4793
▁construction	-4794
▁entrepreneurs	-4795
RI	-4796
▁]	-4797
Yes	-4798
asm	-4799
orb	-4800
rey	-4801
roc	-4802
spe	-4803
▁75	-4804
▁Sm	-4805
doll	-4806
gypt	-4807
iled	-4808
oses	-4809
otic	-4810
roud	-4811
wide	-4812
▁9/1	-4813
▁Hom	-4814
▁Pal	-4815
▁ban	-4816
▁dri	-4817
▁pet	-4818
▁scr	-4819
▁toy	-4820
▁wis	-4821
ipped	-4822
point	-4823
state	-4824
▁arms	-4825
▁date	-4826
▁fert	-4827
▁gest	-4828
▁grad	-4829
▁mush	-4830
▁neur	-4831
▁plus	-4832
▁poly	-4833
▁puzz	-4834
▁ride	-4835
▁scen	-4836
▁thin	-4837
▁writ	-4838
dollar	-4839
ensity	-4840
▁Egypt	-4841
▁Jesus	-4842
▁White	-4843
▁Woman	-4844
▁alien	-4845
▁atoms	-4846
▁claim	-4847
▁crows	-4848
▁fully	-4849
▁obser	-4850
▁pleas	-4851
▁proud	-4852
▁realm	-4853
▁scene	-4854
▁Afghan	-4855
▁Number	-4856
▁battle	-4857
▁begins	-4858
▁buying	-4859
▁colors	-4860
▁convin	-4861
▁correl	-4862
▁fossil	-4863
▁height	-4864
▁phones	-4865
▁speech	-4866
▁stream	-4867
▁studio	-4868
▁thanks	-4869
▁ticket	-4870
▁tissue	-4871
▁applied	-4872
▁extract	-4873
▁husband	-4874
▁players	-4875
▁require	-4876
▁station	-4877
▁strateg	-4878
▁complain	-4879
▁cultures	-4880
▁thoughts	-4881
▁trillion	-4882
▁ecosystem	-4883
▁marketing	-4884
▁uncertain	-4885
▁controvers	-4886
▁depression	-4887
▁represents	-4888
▁structures	-4889
▁destruction	-4890
▁distribution	-4891
MS	-4892
OK	-4893
za	-4894
eal	-4895
lin	-4896
xic	-4897
adic	-4898
asha	-4899
cipl	-4900
icip	-4901
mark	-4902
ooth	-4903
rick	-4904
ubes	-4905
walk	-4906
▁Air	-4907
▁Dep	-4908
▁Jul	-4909
▁Tes	-4910
▁mes	-4911
▁row	-4912
lying	-4913
orest	-4914
orith	-4915
▁Comm	-4916
▁Stud	-4917
▁Tanz	-4918
▁arts	-4919
▁bear	-4920
▁bell	-4921
▁cart	-4922
▁cogn	-4923
▁lies	-4924
▁loud	-4925
▁meas	-4926
▁myce	-4927
▁pand	-4928
▁pupp	-4929
arrass	-4930
itness	-4931
▁About	-4932
▁accur	-4933
▁added	-4934
▁invol	-4935
▁notes	-4936
▁recom	-4937
▁relev	-4938
▁sight	-4939
▁stret	-4940
istance	-4941
▁Mexico	-4942
▁Newton	-4943
▁analog	-4944
▁critic	-4945
▁fellow	-4946
▁heaven	-4947
▁insect	-4948
▁lights	-4949
▁myster	-4950
▁winter	-4951
entional	-4952
▁Science	-4953
▁authent	-4954
▁charges	-4955
▁foreign	-4956
▁laptops	-4957
▁leading	-4958
▁matters	-4959
▁members	-4960
▁plastic	-4961
▁tsunami	-4962
oundation	-4963
▁algorith	-4964
▁apparent	-4965
▁collabor	-4966
▁fighting	-4967
▁platform	-4968
▁Hollywood	-4969
▁authority	-4970
▁embarrass	-4971
▁mountains	-4972
▁radiation	-4973
▁standards	-4974
▁electrical	-4975
▁electronic	-4976
▁exhibition	-4977
▁institution	-4978
▁manufacturing	-4979
▁psychological	-4980
ox	-4981
▁i	-4982
new	-4983
obe	-4984
rum	-4985
ura	-4986
utr	-4987
uts	-4988
▁II	-4989
adow	-4990
roph	-4991
zler	-4992
▁'60	-4993
▁195	-4994
▁Atl	-4995
▁Mon	-4996
▁egg	-4997
▁fan	-4998
▁lob	-4999
▁tri	-5000
▁tun	-5001
eline	-5002
order	-5003
osion	-5004
ounce	-5005
owers	-5006
rance	-5007
▁bike	-5008
▁cure	-5009
▁dish	-5010
▁elev	-5011
▁flex	-5012
▁fung	-5013
▁grab	-5014
▁jugg	-5015
▁myst	-5016
▁pure	-5017
▁shit	-5018
▁snow	-5019
▁swim	-5020
lement	-5021
usions	-5022
▁Apple	-5023
▁Frank	-5024
▁Italy	-5025
▁Johns	-5026
▁conce	-5027
▁exped	-5028
▁hemis	-5029
▁quiet	-5030
▁rocks	-5031
▁shift	-5032
▁south	-5033
▁stack	-5034
▁thick	-5035
▁toile	-5036
▁wheel	-5037
igation	-5038
ressive	-5039
▁Before	-5040
▁belong	-5041
▁church	-5042
▁clever	-5043
▁comics	-5044
▁hidden	-5045
▁landed	-5046
▁portra	-5047
▁signal	-5048
▁toward	-5049
▁Teszler	-5050
▁attract	-5051
▁calling	-5052
▁channel	-5053
▁decades	-5054
▁extinct	-5055
▁however	-5056
▁mistake	-5057
▁primary	-5058
▁trained	-5059
▁Congress	-5060
▁collapse	-5061
▁location	-5062
▁sentence	-5063
▁vertical	-5064
ologically	-5065
▁chemicals	-5066
▁introduce	-5067
▁communicate	-5068
▁probability	-5069
▁consequences	-5070
▁increasingly	-5071
▁sophisticated	-5072
▁sustainability	-5073
gl	-5074
ls	-5075
Hey	-5076
der	-5077
ros	-5078
xim	-5079
▁2.	-5080
▁Ah	-5081
▁Ed	-5082
▁El	-5083
▁GP	-5084
▁WK	-5085
ardo	-5086
aser	-5087
atin	-5088
eart	-5089
ench	-5090
ener	-5091
foot	-5092
lium	-5093
ocol	-5094
▁250	-5095
▁Ant	-5096
▁Hey	-5097
▁Lin	-5098
▁Min	-5099
▁Pan	-5100
▁Tib	-5101
▁Tur	-5102
▁bes	-5103
▁cha	-5104
▁god	-5105
▁lic	-5106
adesh	-5107
asion	-5108
itely	-5109
▁acad	-5110
▁busy	-5111
▁esca	-5112
▁exer	-5113
▁fuck	-5114
▁intr	-5115
▁lift	-5116
▁mort	-5117
▁pace	-5118
▁rein	-5119
▁rout	-5120
acific	-5121
itchen	-5122
ladesh	-5123
pected	-5124
▁Force	-5125
▁broke	-5126
▁chief	-5127
▁coord	-5128
▁craft	-5129
▁dough	-5130
▁fluid	-5131
▁grant	-5132
▁plans	-5133
▁rates	-5134
▁roads	-5135
▁sugar	-5136
▁sweet	-5137
▁upset	-5138
▁wound	-5139
cellent	-5140
ishment	-5141
ternoon	-5142
▁Nobody	-5143
▁batter	-5144
▁deaths	-5145
▁deeper	-5146
▁embedd	-5147
▁expans	-5148
▁extend	-5149
▁female	-5150
▁genius	-5151
▁geomet	-5152
▁liquid	-5153
▁output	-5154
▁paying	-5155
▁preval	-5156
▁rhythm	-5157
▁stages	-5158
▁volcan	-5159
▁Natasha	-5160
▁briefly	-5161
▁classic	-5162
▁collaps	-5163
▁depends	-5164
▁existed	-5165
▁harvest	-5166
▁justice	-5167
▁kitchen	-5168
▁largely	-5169
▁lessons	-5170
▁remains	-5171
▁sending	-5172
▁stretch	-5173
▁unknown	-5174
▁wearing	-5175
▁abstract	-5176
▁birthday	-5177
▁carrying	-5178
▁convince	-5179
▁engineer	-5180
▁exchange	-5181
▁maintain	-5182
▁mycelium	-5183
▁afternoon	-5184
▁continued	-5185
▁generally	-5186
▁traveling	-5187
▁typically	-5188
▁Bangladesh	-5189
▁Foundation	-5190
▁relatively	-5191
▁implications	-5192
In	-5193
ta	-5194
uh	-5195
igg	-5196
obs	-5197
oln	-5198
ula	-5199
usi	-5200
▁27	-5201
▁35	-5202
▁CD	-5203
▁Ok	-5204
▁Qu	-5205
aret	-5206
half	-5207
olas	-5208
oret	-5209
otes	-5210
rade	-5211
rage	-5212
tech	-5213
▁Cra	-5214
▁Los	-5215
▁Mor	-5216
▁Sov	-5217
▁hat	-5218
▁hun	-5219
▁mad	-5220
▁mam	-5221
▁pal	-5222
▁spa	-5223
cking	-5224
icien	-5225
igate	-5226
itory	-5227
riend	-5228
think	-5229
uries	-5230
▁Four	-5231
▁Gree	-5232
▁Jack	-5233
▁Next	-5234
▁Take	-5235
▁butt	-5236
▁coca	-5237
▁eleg	-5238
▁gaps	-5239
▁hits	-5240
▁milk	-5241
▁peak	-5242
▁runs	-5243
▁suit	-5244
▁vote	-5245
▁wake	-5246
acters	-5247
bridge	-5248
elling	-5249
incoln	-5250
urance	-5251
▁Human	-5252
▁Moore	-5253
▁Space	-5254
▁angle	-5255
▁cliff	-5256
▁horiz	-5257
▁keeps	-5258
▁logic	-5259
▁names	-5260
▁occup	-5261
▁queen	-5262
▁sales	-5263
▁scary	-5264
▁shoes	-5265
▁simul	-5266
▁smoke	-5267
▁tired	-5268
▁upper	-5269
▁France	-5270
▁Really	-5271
▁Russia	-5272
▁island	-5273
▁leader	-5274
▁legacy	-5275
▁select	-5276
▁senses	-5277
▁smooth	-5278
▁transp	-5279
▁wisdom	-5280
▁Finally	-5281
▁appears	-5282
▁burning	-5283
▁consist	-5284
▁doctors	-5285
▁housing	-5286
▁session	-5287
▁witness	-5288
▁circumst	-5289
▁colonies	-5290
▁genocide	-5291
▁graphics	-5292
▁horrible	-5293
▁lifetime	-5294
▁majority	-5295
▁politics	-5296
▁required	-5297
▁requires	-5298
▁Basically	-5299
▁airplanes	-5300
▁cognitive	-5301
▁destroyed	-5302
▁essential	-5303
▁exploring	-5304
▁recording	-5305
▁technique	-5306
▁characters	-5307
▁economists	-5308
▁hemisphere	-5309
▁optimistic	-5310
▁passionate	-5311
▁effectively	-5312
▁experienced	-5313
▁manufacture	-5314
6.	-5315
My	-5316
ho	-5317
jo	-5318
arp	-5319
nik	-5320
sum	-5321
yon	-5322
▁65	-5323
▁DR	-5324
▁Gl	-5325
agon	-5326
ahar	-5327
down	-5328
ello	-5329
gram	-5330
iate	-5331
iens	-5332
lymp	-5333
mble	-5334
pass	-5335
rete	-5336
▁Day	-5337
▁Far	-5338
▁Gal	-5339
▁Que	-5340
▁Rob	-5341
▁Sch	-5342
▁bow	-5343
▁lin	-5344
▁mel	-5345
ategy	-5346
ceans	-5347
chron	-5348
ortex	-5349
osing	-5350
▁Hill	-5351
▁Part	-5352
▁Pole	-5353
▁Port	-5354
▁army	-5355
▁axis	-5356
▁bill	-5357
▁bull	-5358
▁disp	-5359
▁dogs	-5360
▁hung	-5361
▁icon	-5362
▁odds	-5363
▁remo	-5364
▁sees	-5365
▁shut	-5366
apping	-5367
ension	-5368
forest	-5369
profit	-5370
▁Could	-5371
▁Ghana	-5372
▁Grand	-5373
▁McDon	-5374
▁Olymp	-5375
▁brand	-5376
▁cents	-5377
▁crime	-5378
▁facts	-5379
▁fresh	-5380
▁lying	-5381
▁marri	-5382
▁multi	-5383
▁owned	-5384
▁paras	-5385
▁piano	-5386
▁skill	-5387
▁skull	-5388
▁20,000	-5389
▁Design	-5390
▁atomic	-5391
▁define	-5392
▁former	-5393
▁ingred	-5394
▁losing	-5395
▁perman	-5396
▁scared	-5397
▁shrimp	-5398
▁strike	-5399
▁surger	-5400
ifically	-5401
▁Germany	-5402
▁Lincoln	-5403
▁artists	-5404
▁circuit	-5405
▁decline	-5406
▁details	-5407
▁fortune	-5408
▁letters	-5409
▁married	-5410
▁neurons	-5411
▁setting	-5412
▁Everyone	-5413
▁Tanzania	-5414
▁analysis	-5415
▁asteroid	-5416
▁concepts	-5417
▁constant	-5418
▁download	-5419
▁dramatic	-5420
▁efficien	-5421
▁embedded	-5422
▁followed	-5423
▁pandemic	-5424
▁parallel	-5425
▁speakers	-5426
▁strategy	-5427
▁symmetry	-5428
▁transfer	-5429
▁Cambridge	-5430
▁currently	-5431
▁disappear	-5432
▁discovery	-5433
▁economics	-5434
▁emergency	-5435
▁employees	-5436
▁encourage	-5437
▁interests	-5438
▁presented	-5439
▁surprised	-5440
▁virtually	-5441
▁capability	-5442
▁confidence	-5443
▁corruption	-5444
▁directions	-5445
▁expression	-5446
▁leadership	-5447
▁literature	-5448
▁educational	-5449
▁mathematical	-5450
20	-5451
8.	-5452
AR	-5453
bi	-5454
gu	-5455
ym	-5456
ava	-5457
cil	-5458
cop	-5459
mas	-5460
osh	-5461
athy	-5462
ingu	-5463
iors	-5464
keep	-5465
over	-5466
roll	-5467
uity	-5468
zero	-5469
▁700	-5470
▁Ben	-5471
▁Pol	-5472
▁ads	-5473
▁hip	-5474
▁inj	-5475
▁nar	-5476
▁rub	-5477
▁san	-5478
▁vul	-5479
ilemm	-5480
inter	-5481
itual	-5482
ublic	-5483
▁Arch	-5484
▁Budd	-5485
▁Cons	-5486
▁Ital	-5487
▁Swed	-5488
▁craw	-5489
▁emph	-5490
▁enab	-5491
▁ends	-5492
▁enth	-5493
▁hang	-5494
▁hunt	-5495
▁neat	-5496
▁pair	-5497
▁repe	-5498
▁sulf	-5499
▁valu	-5500
▁zoom	-5501
enance	-5502
viewer	-5503
▁Black	-5504
▁House	-5505
▁Santa	-5506
▁Times	-5507
▁birds	-5508
▁caves	-5509
▁chart	-5510
▁decre	-5511
▁diagn	-5512
▁doubt	-5513
▁eleph	-5514
▁estim	-5515
▁fiber	-5516
▁freak	-5517
▁seeds	-5518
▁sheep	-5519
▁shoot	-5520
▁sites	-5521
▁songs	-5522
▁title	-5523
▁tries	-5524
▁veget	-5525
▁waves	-5526
alities	-5527
through	-5528
venient	-5529
▁Street	-5530
▁advice	-5531
▁boring	-5532
▁conver	-5533
▁dilemm	-5534
▁emerge	-5535
▁extent	-5536
▁fortun	-5537
▁joined	-5538
▁oceans	-5539
▁refuge	-5540
▁trends	-5541
▁weapon	-5542
▁Angeles	-5543
▁British	-5544
▁Johnson	-5545
▁Pacific	-5546
▁Project	-5547
▁carried	-5548
▁clothes	-5549
▁concert	-5550
▁include	-5551
▁invited	-5552
▁nowhere	-5553
▁picking	-5554
▁protein	-5555
▁recomme	-5556
▁spectac	-5557
▁visible	-5558
▁windows	-5559
connected	-5560
▁Stanford	-5561
▁affected	-5562
▁drawings	-5563
▁expected	-5564
▁received	-5565
▁subjects	-5566
▁Australia	-5567
▁financial	-5568
▁operating	-5569
▁reference	-5570
▁religions	-5571
▁sculpture	-5572
▁synthetic	-5573
▁apparently	-5574
▁Afghanistan	-5575
▁challenging	-5576
▁inspiration	-5577
▁instruments	-5578
▁interacting	-5579
▁interactive	-5580
▁photography	-5581
▁unbelievable	-5582
4.	-5583
hi	-5584
amb	-5585
aus	-5586
aws	-5587
hab	-5588
igm	-5589
ita	-5590
rem	-5591
▁'7	-5592
▁23	-5593
▁26	-5594
bble	-5595
icop	-5596
ille	-5597
irty	-5598
ocks	-5599
ronx	-5600
uary	-5601
▁201	-5602
▁Cor	-5603
▁Jan	-5604
▁Tom	-5605
▁Wow	-5606
▁ate	-5607
▁dow	-5608
▁meg	-5609
▁nav	-5610
▁wip	-5611
archy	-5612
aving	-5613
break	-5614
ended	-5615
eness	-5616
force	-5617
inger	-5618
iques	-5619
lines	-5620
oston	-5621
▁Mart	-5622
▁Rick	-5623
▁bicy	-5624
▁caps	-5625
▁drum	-5626
▁fool	-5627
▁lets	-5628
▁meme	-5629
▁okay	-5630
▁ours	-5631
▁publ	-5632
▁reco	-5633
▁rent	-5634
▁tube	-5635
▁unus	-5636
▁user	-5637
▁wond	-5638
▁wrap	-5639
ablish	-5640
ounter	-5641
▁Bronx	-5642
▁Coast	-5643
▁Other	-5644
▁blank	-5645
▁bombs	-5646
▁camel	-5647
▁datab	-5648
▁dress	-5649
▁error	-5650
▁falls	-5651
▁goods	-5652
▁horse	-5653
▁imper	-5654
▁indig	-5655
▁input	-5656
▁jelly	-5657
▁manip	-5658
▁owner	-5659
▁refer	-5660
▁ridic	-5661
▁taste	-5662
▁virus	-5663
▁wired	-5664
inction	-5665
itarian	-5666
▁50,000	-5667
▁Boston	-5668
▁Island	-5669
▁Nature	-5670
▁Robert	-5671
▁School	-5672
▁arrest	-5673
▁assume	-5674
▁breath	-5675
▁drives	-5676
▁forced	-5677
▁garden	-5678
▁gather	-5679
▁latest	-5680
▁mainly	-5681
▁profit	-5682
▁sacred	-5683
▁toilet	-5684
▁vulner	-5685
▁clients	-5686
▁cocaine	-5687
▁deliver	-5688
▁factors	-5689
▁figures	-5690
▁helicop	-5691
▁initial	-5692
▁killing	-5693
▁opinion	-5694
▁records	-5695
▁robotic	-5696
▁surgery	-5697
▁writers	-5698
▁European	-5699
▁Remember	-5700
▁accepted	-5701
▁contrast	-5702
▁domestic	-5703
▁exercise	-5704
▁existing	-5705
▁generate	-5706
▁internal	-5707
▁presence	-5708
▁released	-5709
▁theories	-5710
▁whenever	-5711
▁wherever	-5712
▁Christian	-5713
▁consumers	-5714
▁functions	-5715
▁mechanism	-5716
▁naturally	-5717
▁pollution	-5718
▁privilege	-5719
▁universal	-5720
▁accessible	-5721
▁automobile	-5722
▁definitely	-5723
▁efficiency	-5724
▁expedition	-5725
▁innovative	-5726
▁percentage	-5727
▁situations	-5728
▁distributed	-5729
▁maintenance	-5730
▁experimental	-5731
▁circumstances	-5732
▁transportation	-5733
MA	-5734
ao	-5735
gr	-5736
ka	-5737
ye	-5738
yl	-5739
iam	-5740
ixt	-5741
uba	-5742
val	-5743
▁32	-5744
▁FG	-5745
▁JH	-5746
▁KA	-5747
▁Ob	-5748
▁Ox	-5749
▁RS	-5750
▁Vo	-5751
ares	-5752
arre	-5753
asks	-5754
gent	-5755
heim	-5756
look	-5757
oned	-5758
onna	-5759
orms	-5760
oust	-5761
rors	-5762
rupt	-5763
uous	-5764
whel	-5765
wind	-5766
▁10-	-5767
▁Bob	-5768
▁Ext	-5769
▁Put	-5770
▁Rep	-5771
▁Sus	-5772
▁cod	-5773
▁ham	-5774
▁irr	-5775
▁tal	-5776
aters	-5777
iform	-5778
imacy	-5779
iring	-5780
otten	-5781
▁1960	-5782
▁1990	-5783
▁AIMS	-5784
▁Cent	-5785
▁Ford	-5786
▁Hung	-5787
▁Step	-5788
▁Time	-5789
▁bars	-5790
▁glad	-5791
▁hook	-5792
▁leap	-5793
▁lect	-5794
▁mesh	-5795
▁mile	-5796
▁mira	-5797
▁narr	-5798
▁obst	-5799
▁wars	-5800
▁wear	-5801
arters	-5802
encies	-5803
izarre	-5804
rating	-5805
romagn	-5806
soever	-5807
ternal	-5808
weeney	-5809
▁Korea	-5810
▁Larry	-5811
▁Never	-5812
▁Rover	-5813
▁Tibet	-5814
▁angry	-5815
▁frank	-5816
▁grade	-5817
▁miser	-5818
▁perce	-5819
▁pilot	-5820
astroph	-5821
▁Disney	-5822
▁Indian	-5823
▁Soviet	-5824
▁blocks	-5825
▁fabric	-5826
▁harder	-5827
▁houses	-5828
▁relate	-5829
▁ritual	-5830
▁safety	-5831
▁severe	-5832
▁themes	-5833
▁advance	-5834
▁airline	-5835
▁chapter	-5836
▁charity	-5837
▁closely	-5838
▁comment	-5839
▁discipl	-5840
▁failure	-5841
▁feeding	-5842
▁immense	-5843
▁install	-5844
▁rebuild	-5845
▁signals	-5846
▁theoret	-5847
▁therapy	-5848
▁unusual	-5849
▁Somebody	-5850
▁aircraft	-5851
▁articles	-5852
▁dynamics	-5853
▁fabulous	-5854
▁instinct	-5855
▁overwhel	-5856
▁shoulder	-5857
▁spectrum	-5858
▁stronger	-5859
▁synchron	-5860
▁tendency	-5861
▁transist	-5862
▁calculate	-5863
▁convinced	-5864
▁determine	-5865
▁establish	-5866
▁expansion	-5867
▁movements	-5868
▁primitive	-5869
▁recommend	-5870
▁separated	-5871
▁tradition	-5872
▁worldwide	-5873
▁Department	-5874
▁appreciate	-5875
▁biologists	-5876
▁businesses	-5877
▁comparison	-5878
▁management	-5879
▁mathematic	-5880
▁philosophy	-5881
▁physically	-5882
▁prevalence	-5883
▁processing	-5884
▁unexpected	-5885
▁whatsoever	-5886
▁Interviewer	-5887
▁comfortable	-5888
▁disappeared	-5889
▁electromagn	-5890
▁exponential	-5891
▁personality	-5892
▁uncertainty	-5893
▁photographer	-5894
▁administration	-5895
au	-5896
gn	-5897
ala	-5898
ari	-5899
bar	-5900
bie	-5901
bru	-5902
erg	-5903
isl	-5904
low	-5905
ran	-5906
tes	-5907
▁2:	-5908
▁Op	-5909
amin	-5910
anol	-5911
appy	-5912
bage	-5913
berg	-5914
bird	-5915
ctic	-5916
east	-5917
erey	-5918
hour	-5919
ifth	-5920
▁'90	-5921
▁Gra	-5922
▁Wal	-5923
▁bri	-5924
▁dot	-5925
▁due	-5926
▁gig	-5927
There	-5928
angle	-5929
icted	-5930
isher	-5931
neath	-5932
ostic	-5933
romos	-5934
umble	-5935
▁Coll	-5936
▁Jill	-5937
▁Libr	-5938
▁Long	-5939
▁Rand	-5940
▁ages	-5941
▁flag	-5942
▁hide	-5943
▁pool	-5944
▁toes	-5945
▁tone	-5946
▁tort	-5947
▁toys	-5948
▁whis	-5949
abetes	-5950
ancing	-5951
bruary	-5952
engine	-5953
iosity	-5954
mitted	-5955
ortion	-5956
stream	-5957
▁Bonob	-5958
▁Latin	-5959
▁coast	-5960
▁drift	-5961
▁flour	-5962
▁homes	-5963
▁rooms	-5964
▁schiz	-5965
▁style	-5966
▁teams	-5967
▁tooth	-5968
▁units	-5969
century	-5970
▁Canada	-5971
▁button	-5972
▁copied	-5973
▁enable	-5974
▁evolve	-5975
▁gravit	-5976
▁repair	-5977
▁stress	-5978
▁struck	-5979
▁tracks	-5980
▁Charles	-5981
▁balloon	-5982
▁bizarre	-5983
▁capture	-5984
▁enthusi	-5985
▁flowers	-5986
▁funding	-5987
▁insects	-5988
▁inspire	-5989
▁lottery	-5990
▁outcome	-5991
▁radical	-5992
▁reports	-5993
▁reprodu	-5994
▁scratch	-5995
▁shelter	-5996
▁suspect	-5997
▁February	-5998
▁McDonald	-5999
▁Monterey	-6000
▁climbing	-6001
▁confront	-6002
▁consumer	-6003
▁diamonds	-6004
▁hardware	-6005
▁imagined	-6006
▁inherent	-6007
▁magnetic	-6008
▁properly	-6009
▁proposal	-6010
▁textbook	-6011
▁Christmas	-6012
▁announced	-6013
▁behaviors	-6014
▁corporate	-6015
▁dedicated	-6016
▁professor	-6017
▁activities	-6018
▁associated	-6019
▁catastroph	-6020
▁originally	-6021
▁underneath	-6022
▁computation	-6023
▁controlling	-6024
fu	-6025
But	-6026
ali	-6027
cal	-6028
dle	-6029
eps	-6030
oca	-6031
oms	-6032
rix	-6033
tan	-6034
▁Bo	-6035
▁SJ	-6036
aiti	-6037
bles	-6038
case	-6039
ests	-6040
etti	-6041
inth	-6042
izer	-6043
mber	-6044
rael	-6045
rase	-6046
rint	-6047
rook	-6048
tain	-6049
utch	-6050
▁Edu	-6051
▁Eve	-6052
▁Hig	-6053
▁Jer	-6054
▁Ros	-6055
▁Sil	-6056
▁Sud	-6057
▁bab	-6058
▁bre	-6059
▁cas	-6060
▁der	-6061
▁gap	-6062
▁ger	-6063
▁heh	-6064
▁mak	-6065
▁van	-6066
akers	-6067
ament	-6068
erves	-6069
esign	-6070
essor	-6071
etric	-6072
front	-6073
icing	-6074
irect	-6075
ribly	-6076
usive	-6077
venth	-6078
while	-6079
▁Only	-6080
▁Rock	-6081
▁Sput	-6082
▁acqu	-6083
▁deli	-6084
▁dots	-6085
▁grid	-6086
▁hire	-6087
▁hors	-6088
▁mall	-6089
▁mant	-6090
▁mode	-6091
▁orph	-6092
▁tank	-6093
▁till	-6094
▁vict	-6095
called	-6096
esthes	-6097
ignity	-6098
isters	-6099
mingly	-6100
ophren	-6101
▁Carol	-6102
▁Clint	-6103
▁Haiti	-6104
▁Peace	-6105
▁Queen	-6106
▁Watch	-6107
▁Women	-6108
▁admit	-6109
▁adopt	-6110
▁aside	-6111
▁bones	-6112
▁burst	-6113
▁cryst	-6114
▁dense	-6115
▁downt	-6116
▁dozen	-6117
▁fewer	-6118
▁fungi	-6119
▁holds	-6120
▁hyper	-6121
▁limit	-6122
▁pregn	-6123
▁purch	-6124
▁rings	-6125
▁sharp	-6126
▁teeth	-6127
▁walks	-6128
▁Amazon	-6129
▁Oxford	-6130
▁assemb	-6131
▁branch	-6132
▁cosmic	-6133
▁decent	-6134
▁dialog	-6135
▁dreams	-6136
▁elimin	-6137
▁eradic	-6138
▁escape	-6139
▁handle	-6140
▁inches	-6141
▁intent	-6142
▁limits	-6143
▁linear	-6144
▁namely	-6145
▁narrow	-6146
▁papers	-6147
▁pocket	-6148
▁scream	-6149
▁sketch	-6150
▁stayed	-6151
▁subway	-6152
▁traged	-6153
aneously	-6154
children	-6155
ulations	-6156
▁Britain	-6157
▁Library	-6158
▁Perhaps	-6159
▁Russian	-6160
▁airport	-6161
▁careful	-6162
▁command	-6163
▁engaged	-6164
▁entered	-6165
▁ethanol	-6166
▁forming	-6167
▁fragile	-6168
▁frankly	-6169
▁headach	-6170
▁insight	-6171
▁liberal	-6172
▁mothers	-6173
▁mystery	-6174
▁nations	-6175
▁pointed	-6176
▁rapidly	-6177
▁regions	-6178
▁strings	-6179
▁weapons	-6180
▁younger	-6181
▁appeared	-6182
▁diabetes	-6183
▁director	-6184
▁mistakes	-6185
▁multiple	-6186
▁organize	-6187
▁pleasant	-6188
▁printing	-6189
▁prisoner	-6190
▁recorded	-6191
▁relevant	-6192
▁shopping	-6193
▁sleeping	-6194
▁surfaces	-6195
▁valuable	-6196
▁Greenland	-6197
▁awareness	-6198
▁backwards	-6199
▁commodity	-6200
▁elsewhere	-6201
▁encounter	-6202
▁footprint	-6203
▁implement	-6204
▁physicist	-6205
▁precisely	-6206
▁providing	-6207
▁sensitive	-6208
▁statement	-6209
▁therapies	-6210
▁chimpanzee	-6211
▁controlled	-6212
▁industries	-6213
▁meaningful	-6214
▁mysterious	-6215
▁perception	-6216
▁recognized	-6217
▁techniques	-6218
▁vulnerable	-6219
▁connections	-6220
▁consumption	-6221
▁contributed	-6222
▁demonstrate	-6223
▁schizophren	-6224
▁spectacular	-6225
▁breakthrough	-6226
▁photographed	-6227
▁specifically	-6228
▁institutional	-6229
30	-6230
EC	-6231
Is	-6232
va	-6233
wr	-6234
yr	-6235
Let	-6236
asy	-6237
box	-6238
cue	-6239
ena	-6240
iac	-6241
lyn	-6242
mod	-6243
org	-6244
ses	-6245
son	-6246
▁2,	-6247
▁Eu	-6248
▁SS	-6249
▁ah	-6250
anny	-6251
apor	-6252
coal	-6253
enth	-6254
gers	-6255
lies	-6256
oken	-6257
omin	-6258
ourt	-6259
sour	-6260
ulse	-6261
▁Cop	-6262
▁Unf	-6263
▁Way	-6264
▁adj	-6265
▁cab	-6266
▁enh	-6267
▁jew	-6268
▁raw	-6269
▁sym	-6270
bably	-6271
enous	-6272
essel	-6273
icide	-6274
ighth	-6275
ingly	-6276
itors	-6277
keley	-6278
otton	-6279
roach	-6280
third	-6281
using	-6282
▁Cath	-6283
▁Homo	-6284
▁June	-6285
▁Pitt	-6286
▁bind	-6287
▁cham	-6288
▁chop	-6289
▁dust	-6290
▁ears	-6291
▁ethn	-6292
▁exec	-6293
▁firm	-6294
▁fulf	-6295
▁lake	-6296
▁meal	-6297
▁mere	-6298
▁murd	-6299
▁pill	-6300
▁rail	-6301
▁sets	-6302
▁suck	-6303
▁zone	-6304
cyclop	-6305
ghetti	-6306
ifting	-6307
making	-6308
othing	-6309
vation	-6310
▁Congo	-6311
▁Craig	-6312
▁Higgs	-6313
▁Since	-6314
▁Swiss	-6315
▁Third	-6316
▁amate	-6317
▁cream	-6318
▁disag	-6319
▁flood	-6320
▁globe	-6321
▁gonna	-6322
▁outer	-6323
▁polic	-6324
▁probe	-6325
▁sheet	-6326
▁spell	-6327
▁stock	-6328
▁thumb	-6329
▁tiles	-6330
▁topic	-6331
▁whale	-6332
anthrop	-6333
embered	-6334
entally	-6335
erences	-6336
science	-6337
ulating	-6338
▁30,000	-6339
▁Canyon	-6340
▁Museum	-6341
▁adding	-6342
▁bubble	-6343
▁buried	-6344
▁deploy	-6345
▁driver	-6346
▁emphas	-6347
▁hearts	-6348
▁leaves	-6349
▁lifest	-6350
▁manual	-6351
▁obstac	-6352
▁shaped	-6353
▁solved	-6354
▁stroke	-6355
▁thrown	-6356
▁trucks	-6357
▁upside	-6358
▁valley	-6359
▁volume	-6360
etically	-6361
lication	-6362
quarters	-6363
▁Italian	-6364
▁Nothing	-6365
▁Sputnik	-6366
▁amounts	-6367
▁arrange	-6368
▁ceiling	-6369
▁chromos	-6370
▁cluster	-6371
▁concern	-6372
▁defined	-6373
▁garbage	-6374
▁gesture	-6375
▁hitting	-6376
▁pricing	-6377
▁section	-6378
▁segment	-6379
▁selfish	-6380
▁soldier	-6381
▁visited	-6382
▁wanting	-6383
▁whereas	-6384
▁Berkeley	-6385
▁Carolina	-6386
▁Probably	-6387
▁accurate	-6388
▁astronom	-6389
▁combined	-6390
▁concrete	-6391
▁downtown	-6392
▁entrance	-6393
▁friendly	-6394
▁treating	-6395
▁villages	-6396
▁increases	-6397
▁insurance	-6398
▁mechanics	-6399
▁spaghetti	-6400
▁supported	-6401
▁telescope	-6402
▁continents	-6403
▁contribute	-6404
▁disappoint	-6405
▁governance	-6406
▁greenhouse	-6407
▁initiative	-6408
▁permission	-6409
▁remembered	-6410
▁volunteers	-6411
▁advertising	-6412
▁cooperation	-6413
▁restaurants	-6414
▁technically	-6415
▁transformed	-6416
▁underground	-6417
▁conventional	-6418
▁Unfortunately	-6419
▁representation	-6420
7.	-6421
He	-6422
yg	-6423
IDS	-6424
any	-6425
bes	-6426
cut	-6427
ela	-6428
era	-6429
exp	-6430
gel	-6431
ims	-6432
lor	-6433
oky	-6434
pit	-6435
ria	-6436
str	-6437
▁28	-6438
▁99	-6439
▁Ac	-6440
▁ID	-6441
▁La	-6442
▁id	-6443
aint	-6444
aled	-6445
bors	-6446
cons	-6447
eled	-6448
grow	-6449
icit	-6450
oons	-6451
ords	-6452
xide	-6453
▁'80	-6454
▁190	-6455
▁191	-6456
▁Ann	-6457
▁Bet	-6458
▁Pak	-6459
▁Pre	-6460
▁Roy	-6461
▁Sir	-6462
▁Spe	-6463
▁Vol	-6464
▁bat	-6465
▁jet	-6466
▁rig	-6467
▁tid	-6468
▁tut	-6469
clear	-6470
iated	-6471
isted	-6472
level	-6473
raine	-6474
sters	-6475
ville	-6476
▁$100	-6477
▁Blue	-6478
▁News	-6479
▁Sing	-6480
▁Viet	-6481
▁Walk	-6482
▁bulb	-6483
▁clay	-6484
▁damn	-6485
▁diag	-6486
▁dies	-6487
▁diss	-6488
▁fits	-6489
▁guns	-6490
▁laid	-6491
▁nets	-6492
▁orch	-6493
▁plug	-6494
▁poem	-6495
▁reci	-6496
▁rush	-6497
▁stem	-6498
▁tech	-6499
▁trib	-6500
▁unit	-6501
▁vide	-6502
father	-6503
ptions	-6504
ulsion	-6505
ushing	-6506
▁Power	-6507
▁abuse	-6508
▁anger	-6509
▁antib	-6510
▁boxes	-6511
▁brown	-6512
▁daily	-6513
▁drove	-6514
▁elite	-6515
▁fixed	-6516
▁frame	-6517
▁geese	-6518
▁gotta	-6519
▁grows	-6520
▁holes	-6521
▁layer	-6522
▁relax	-6523
▁risks	-6524
▁shell	-6525
▁stere	-6526
▁stops	-6527
▁tasks	-6528
▁toler	-6529
▁tumor	-6530
▁uncle	-6531
▁weigh	-6532
powered	-6533
▁Israel	-6534
▁Within	-6535
▁aliens	-6536
▁arrive	-6537
▁desper	-6538
▁flavor	-6539
▁flower	-6540
▁interf	-6541
▁linked	-6542
▁oldest	-6543
▁preser	-6544
▁reject	-6545
▁robust	-6546
▁scenar	-6547
▁status	-6548
▁target	-6549
▁vessel	-6550
▁wheels	-6551
▁wishes	-6552
▁writer	-6553
esthesia	-6554
ventions	-6555
▁Clinton	-6556
▁Sweeney	-6557
▁accompl	-6558
▁anthrop	-6559
▁beekeep	-6560
▁besides	-6561
▁causing	-6562
▁combine	-6563
▁conduct	-6564
▁density	-6565
▁distant	-6566
▁disturb	-6567
▁embrace	-6568
▁emerged	-6569
▁falling	-6570
▁highway	-6571
▁imagery	-6572
▁impacts	-6573
▁methane	-6574
▁microsc	-6575
▁musical	-6576
▁parking	-6577
▁passing	-6578
▁poorest	-6579
▁regener	-6580
▁revenue	-6581
▁speaker	-6582
▁statist	-6583
▁testing	-6584
▁traject	-6585
▁viruses	-6586
▁winning	-6587
▁Catholic	-6588
▁Pakistan	-6589
▁Republic	-6590
▁answered	-6591
▁charcoal	-6592
▁dinosaur	-6593
▁fraction	-6594
▁genetics	-6595
▁involves	-6596
▁marriage	-6597
▁paradigm	-6598
▁portrait	-6599
▁proteins	-6600
▁struggle	-6601
▁centuries	-6602
▁classical	-6603
▁depending	-6604
▁gentlemen	-6605
▁neighbors	-6606
▁nonprofit	-6607
▁operation	-6608
▁planetary	-6609
▁translate	-6610
▁indigenous	-6611
▁physicists	-6612
▁publishing	-6613
▁resolution	-6614
▁ridiculous	-6615
▁underwater	-6616
▁foundations	-6617
▁participate	-6618
▁partnership	-6619
▁politicians	-6620
▁predictions	-6621
▁dictionaries	-6622
▁dramatically	-6623
▁collaboration	-6624
▁fundamentally	-6625
▁communications	-6626
▁interpretation	-6627
St	-6628
ov	-6629
God	-6630
Pod	-6631
alu	-6632
ida	-6633
nda	-6634
oes	-6635
ums	-6636
▁3.	-6637
▁BM	-6638
▁Hu	-6639
▁RI	-6640
▁Up	-6641
▁ug	-6642
abol	-6643
alog	-6644
cers	-6645
cost	-6646
fold	-6647
free	-6648
gets	-6649
lete	-6650
omic	-6651
oots	-6652
ptic	-6653
rary	-6654
umin	-6655
▁20,	-6656
▁CEO	-6657
▁Hel	-6658
▁Mal	-6659
▁Nic	-6660
▁RSW	-6661
▁Sel	-6662
▁Sky	-6663
▁Tel	-6664
▁ack	-6665
▁mic	-6666
▁nap	-6667
▁obl	-6668
▁orb	-6669
▁org	-6670
▁pin	-6671
▁pra	-6672
▁sed	-6673
▁wel	-6674
anges	-6675
brush	-6676
eling	-6677
enced	-6678
eries	-6679
human	-6680
iance	-6681
ifact	-6682
iment	-6683
inity	-6684
leton	-6685
under	-6686
▁Back	-6687
▁Lake	-6688
▁Mill	-6689
▁Norm	-6690
▁Panb	-6691
▁Talk	-6692
▁Tell	-6693
▁Wind	-6694
▁Zero	-6695
▁acid	-6696
▁biod	-6697
▁coin	-6698
▁cups	-6699
▁cute	-6700
▁decl	-6701
▁flip	-6702
▁hier	-6703
▁isol	-6704
▁loan	-6705
▁logo	-6706
▁maps	-6707
▁mate	-6708
▁melt	-6709
▁moth	-6710
▁nutr	-6711
▁pour	-6712
▁pros	-6713
▁vacc	-6714
anisha	-6715
hattan	-6716
igaret	-6717
istant	-6718
mental	-6719
rained	-6720
▁Brian	-6721
▁Brook	-6722
▁Court	-6723
▁Dutch	-6724
▁Keith	-6725
▁Mount	-6726
▁Ocean	-6727
▁Pitts	-6728
▁Voice	-6729
▁While	-6730
▁accum	-6731
▁apple	-6732
▁chaos	-6733
▁colum	-6734
▁erect	-6735
▁flash	-6736
▁foods	-6737
▁frust	-6738
▁goals	-6739
▁grabb	-6740
▁likes	-6741
▁minim	-6742
▁recon	-6743
▁renew	-6744
▁schem	-6745
▁screw	-6746
▁signs	-6747
▁tears	-6748
▁tests	-6749
▁tubes	-6750
▁wheat	-6751
ativity	-6752
ocolate	-6753
rations	-6754
▁Arctic	-6755
▁Health	-6756
▁Marcus	-6757
▁acoust	-6758
▁babies	-6759
▁crying	-6760
▁estate	-6761
▁fright	-6762
▁garage	-6763
▁horses	-6764
▁invite	-6765
▁kicked	-6766
▁ladies	-6767
▁legisl	-6768
▁lovely	-6769
▁orange	-6770
▁pedest	-6771
▁placed	-6772
▁poetry	-6773
▁recycl	-6774
▁relief	-6775
▁spoken	-6776
▁stands	-6777
▁stores	-6778
▁storyt	-6779
▁strand	-6780
▁subtle	-6781
▁surely	-6782
▁tomato	-6783
changing	-6784
interest	-6785
▁200,000	-6786
▁Muslims	-6787
▁Nations	-6788
▁Stephen	-6789
▁Vietnam	-6790
▁battery	-6791
▁conserv	-6792
▁dilemma	-6793
▁fractal	-6794
▁hanging	-6795
▁illness	-6796
▁lecture	-6797
▁letting	-6798
▁license	-6799
▁mustard	-6800
▁offered	-6801
▁playful	-6802
▁portion	-6803
▁raising	-6804
▁release	-6805
▁sectors	-6806
▁solving	-6807
▁sources	-6808
▁touched	-6809
▁Nigerian	-6810
▁breaking	-6811
▁conclude	-6812
▁feedback	-6813
▁floating	-6814
▁messages	-6815
▁migraine	-6816
▁musician	-6817
▁obsessed	-6818
▁official	-6819
▁outbreak	-6820
▁produces	-6821
▁unlikely	-6822
cyclopedia	-6823
▁Manhattan	-6824
▁accidents	-6825
▁astronomy	-6826
▁committed	-6827
▁curiosity	-6828
▁explosion	-6829
▁gentleman	-6830
▁identical	-6831
▁improving	-6832
▁intuitive	-6833
▁lifestyle	-6834
▁permanent	-6835
▁philosoph	-6836
▁searching	-6837
▁terrorism	-6838
otechnology	-6839
▁Panbanisha	-6840
▁assignment	-6841
▁collecting	-6842
▁commitment	-6843
▁convenient	-6844
▁democratic	-6845
▁determines	-6846
▁fascinated	-6847
▁helicopter	-6848
▁spacecraft	-6849
▁surrounded	-6850
▁translator	-6851
▁consequence	-6852
▁potentially	-6853
▁programming	-6854
▁contemporary	-6855
▁entrepreneur	-6856
▁environments	-6857
▁productivity	-6858
▁interestingly	-6859
▁electromagnetic	-6860
-1	-6861
BC	-6862
CA	-6863
HI	-6864
bl	-6865
.'"	-6866
ads	-6867
ani	-6868
eds	-6869
law	-6870
nat	-6871
odd	-6872
opy	-6873
rat	-6874
reh	-6875
rip	-6876
sey	-6877
vol	-6878
▁KT	-6879
▁SP	-6880
Mart	-6881
Sook	-6882
angh	-6883
aren	-6884
arks	-6885
ault	-6886
care	-6887
ifer	-6888
illa	-6889
irlf	-6890
mals	-6891
mill	-6892
part	-6893
plic	-6894
rich	-6895
rons	-6896
sell	-6897
zing	-6898
▁'70	-6899
▁350	-6900
▁800	-6901
▁Bur	-6902
▁Dem	-6903
▁Jay	-6904
▁Kle	-6905
▁Lad	-6906
▁Lou	-6907
▁Luc	-6908
▁Mur	-6909
▁Nob	-6910
▁aer	-6911
▁aes	-6912
▁caf	-6913
▁dio	-6914
▁eld	-6915
▁hur	-6916
▁vib	-6917
anged	-6918
asses	-6919
ensus	-6920
gener	-6921
ifest	-6922
peare	-6923
ponds	-6924
puter	-6925
riger	-6926
▁1950	-6927
▁High	-6928
▁Hyun	-6929
▁Leon	-6930
▁Mama	-6931
▁Mark	-6932
▁Sund	-6933
▁alph	-6934
▁bare	-6935
▁bath	-6936
▁beer	-6937
▁biom	-6938
▁bump	-6939
▁crew	-6940
▁eggs	-6941
▁grat	-6942
▁junk	-6943
▁kiss	-6944
▁lawy	-6945
▁nurt	-6946
▁pink	-6947
▁rect	-6948
▁sexy	-6949
▁stom	-6950
▁wing	-6951
anghai	-6952
astern	-6953
ateful	-6954
energy	-6955
semble	-6956
source	-6957
verted	-6958
▁2000,	-6959
▁3,000	-6960
▁Media	-6961
▁Paris	-6962
▁Trade	-6963
▁aband	-6964
▁acres	-6965
▁aston	-6966
▁auton	-6967
▁blast	-6968
▁delic	-6969
▁drawn	-6970
▁enemy	-6971
▁epile	-6972
▁faced	-6973
▁filmm	-6974
▁flows	-6975
▁humor	-6976
▁laser	-6977
▁males	-6978
▁nucle	-6979
▁phase	-6980
▁reson	-6981
▁satis	-6982
▁surge	-6983
▁threw	-6984
▁twins	-6985
▁usual	-6986
▁yours	-6987
comfort	-6988
inarily	-6989
usiness	-6990
viously	-6991
▁Jewish	-6992
▁Shakes	-6993
▁Sweden	-6994
▁absorb	-6995
▁agenda	-6996
▁behave	-6997
▁breaks	-6998
▁campus	-6999
▁convey	-7000
▁cookie	-7001
▁cotton	-7002
▁credit	-7003
▁funded	-7004
▁hardly	-7005
▁heroes	-7006
▁incent	-7007
▁jumped	-7008
▁mantis	-7009
▁observ	-7010
▁occurs	-7011
▁panels	-7012
▁parach	-7013
▁plenty	-7014
▁puzzle	-7015
▁reform	-7016
▁served	-7017
▁signed	-7018
▁spades	-7019
▁sticks	-7020
▁struct	-7021
▁tricks	-7022
ructions	-7023
▁Central	-7024
▁January	-7025
▁Montana	-7026
▁Silicon	-7027
▁adopted	-7028
▁anticip	-7029
▁broader	-7030
▁cartoon	-7031
▁cheaper	-7032
▁courage	-7033
▁delight	-7034
▁dignity	-7035
▁diverse	-7036
▁educate	-7037
▁flights	-7038
▁instant	-7039
▁kingdom	-7040
▁mammals	-7041
▁operate	-7042
▁package	-7043
▁promise	-7044
▁pursuit	-7045
▁removed	-7046
▁rethink	-7047
▁squared	-7048
▁strands	-7049
▁symbols	-7050
▁textile	-7051
▁texture	-7052
▁tragedy	-7053
▁upright	-7054
▁venture	-7055
▁violent	-7056
abilities	-7057
▁Shanghai	-7058
▁antibiot	-7059
▁applying	-7060
▁artifact	-7061
▁calories	-7062
▁clothing	-7063
▁focusing	-7064
▁geometry	-7065
▁illusion	-7066
▁incident	-7067
▁intimacy	-7068
▁inventor	-7069
▁juggling	-7070
▁lighting	-7071
▁meetings	-7072
▁occasion	-7073
▁provides	-7074
▁refriger	-7075
▁shooting	-7076
▁smallest	-7077
▁suggests	-7078
▁tracking	-7079
▁versions	-7080
▁authentic	-7081
▁celebrate	-7082
▁chocolate	-7083
▁collected	-7084
▁component	-7085
▁economies	-7086
▁miserable	-7087
▁paralyzed	-7088
▁remaining	-7089
▁strategic	-7090
▁suggested	-7091
▁territory	-7092
▁worldview	-7093
▁department	-7094
▁identified	-7095
▁impression	-7096
▁inevitable	-7097
▁profession	-7098
▁underlying	-7099
▁Shakespeare	-7100
▁corresponds	-7101
▁improvement	-7102
▁theoretical	-7103
▁universities	-7104
▁grandchildren	-7105
▁photographers	-7106
▁characteristics	-7107
DP	-7108
mi	-7109
And	-7110
auc	-7111
azz	-7112
col	-7113
edy	-7114
equ	-7115
gal	-7116
gio	-7117
iel	-7118
kin	-7119
oli	-7120
oto	-7121
raw	-7122
see	-7123
vas	-7124
▁85	-7125
▁95	-7126
▁Bu	-7127
▁DG	-7128
▁DV	-7129
▁PC	-7130
▁PH	-7131
▁Po	-7132
▁VC	-7133
▁Wi	-7134
abil	-7135
ague	-7136
ails	-7137
alse	-7138
bule	-7139
cher	-7140
cont	-7141
iday	-7142
ifts	-7143
illy	-7144
ints	-7145
mind	-7146
ogen	-7147
okyo	-7148
onym	-7149
pond	-7150
uine	-7151
vity	-7152
▁Kat	-7153
▁McL	-7154
▁Out	-7155
▁Pat	-7156
▁Sar	-7157
▁Six	-7158
▁Ten	-7159
▁Tim	-7160
▁Yet	-7161
▁aim	-7162
▁bug	-7163
▁gee	-7164
▁jar	-7165
▁lap	-7166
▁sen	-7167
▁spr	-7168
▁tag	-7169
▁wid	-7170
actic	-7171
anned	-7172
arant	-7173
athan	-7174
being	-7175
burgh	-7176
eller	-7177
ellig	-7178
going	-7179
inate	-7180
inery	-7181
ivial	-7182
otted	-7183
pound	-7184
speed	-7185
world	-7186
▁9/11	-7187
▁Expl	-7188
▁Hall	-7189
▁Mary	-7190
▁Mola	-7191
▁Peps	-7192
▁RISD	-7193
▁Same	-7194
▁cere	-7195
▁chef	-7196
▁dump	-7197
▁east	-7198
▁exte	-7199
▁frog	-7200
▁gray	-7201
▁iPod	-7202
▁inch	-7203
▁mand	-7204
▁oven	-7205
▁pean	-7206
▁rice	-7207
▁suey	-7208
▁tack	-7209
▁tear	-7210
▁tied	-7211
▁ugly	-7212
aharan	-7213
escope	-7214
fessor	-7215
heimer	-7216
ptical	-7217
urable	-7218
▁Barry	-7219
▁Heart	-7220
▁Nobel	-7221
▁Roots	-7222
▁Tokyo	-7223
▁clubs	-7224
▁comic	-7225
▁decor	-7226
▁digit	-7227
▁dirty	-7228
▁false	-7229
▁finds	-7230
▁flies	-7231
▁girlf	-7232
▁guide	-7233
▁incom	-7234
▁kills	-7235
▁knock	-7236
▁loose	-7237
▁march	-7238
▁maxim	-7239
▁mayor	-7240
▁minus	-7241
▁mutil	-7242
▁opens	-7243
▁persu	-7244
▁plays	-7245
▁shake	-7246
▁sides	-7247
▁spons	-7248
▁spont	-7249
▁surve	-7250
▁toxic	-7251
▁trend	-7252
▁weeke	-7253
looking	-7254
reement	-7255
▁Nicole	-7256
▁Sergio	-7257
▁Shoots	-7258
▁Sobule	-7259
▁Things	-7260
▁analyz	-7261
▁capita	-7262
▁eighth	-7263
▁ethnic	-7264
▁explod	-7265
▁farmer	-7266
▁fertil	-7267
▁frozen	-7268
▁househ	-7269
▁matrix	-7270
▁member	-7271
▁orphan	-7272
▁patent	-7273
▁phrase	-7274
▁planes	-7275
▁poster	-7276
▁pushed	-7277
▁remove	-7278
▁retail	-7279
▁review	-7280
▁sample	-7281
▁script	-7282
▁spiral	-7283
▁stable	-7284
▁sulfur	-7285
▁upward	-7286
▁voices	-7287
▁Anybody	-7288
▁Atlanta	-7289
▁Olympic	-7290
▁amateur	-7291
▁bottles	-7292
▁cigaret	-7293
▁classes	-7294
▁climbed	-7295
▁closing	-7296
▁compete	-7297
▁consume	-7298
▁crashes	-7299
▁descend	-7300
▁destiny	-7301
▁diagram	-7302
▁dioxide	-7303
▁divided	-7304
▁empower	-7305
▁experts	-7306
▁federal	-7307
▁finance	-7308
▁fulfill	-7309
▁genuine	-7310
▁locally	-7311
▁metabol	-7312
▁muscles	-7313
▁officer	-7314
▁options	-7315
▁parties	-7316
▁printed	-7317
▁pulling	-7318
▁sensory	-7319
▁wealthy	-7320
▁Leonardo	-7321
▁Mountain	-7322
▁catching	-7323
▁controls	-7324
▁distinct	-7325
▁expanded	-7326
▁figuring	-7327
▁football	-7328
▁keyboard	-7329
▁morality	-7330
▁mushroom	-7331
▁rational	-7332
▁reminded	-7333
▁undergra	-7334
▁volcanic	-7335
▁Alexander	-7336
▁Obviously	-7337
▁animation	-7338
▁breathing	-7339
▁cockroach	-7340
▁distances	-7341
▁equations	-7342
▁expanding	-7343
▁favorites	-7344
▁paintings	-7345
▁primarily	-7346
▁prototype	-7347
▁spiritual	-7348
▁Pittsburgh	-7349
▁aggressive	-7350
▁conceptual	-7351
▁integrated	-7352
▁mechanical	-7353
▁prediction	-7354
▁punishment	-7355
▁struggling	-7356
▁traditions	-7357
▁trajectory	-7358
▁translated	-7359
▁antibiotics	-7360
▁concentrate	-7361
▁description	-7362
▁discoveries	-7363
▁ingredients	-7364
▁marketplace	-7365
▁observation	-7366
▁transparent	-7367
▁accelerating	-7368
▁agricultural	-7369
▁biodiversity	-7370
▁concentrated	-7371
▁connectivity	-7372
▁experiencing	-7373
▁humanitarian	-7374
▁architectural	-7375
Af	-7376
Ah	-7377
sp	-7378
uk	-7379
200	-7380
All	-7381
HIN	-7382
aze	-7383
bag	-7384
bal	-7385
cto	-7386
gic	-7387
hir	-7388
hol	-7389
ias	-7390
ini	-7391
omb	-7392
pie	-7393
▁0.	-7394
▁55	-7395
▁Es	-7396
▁Ky	-7397
▁Mi	-7398
▁gh	-7399
▁ju	-7400
▁na	-7401
,500	-7402
When	-7403
aked	-7404
aman	-7405
aped	-7406
atar	-7407
beat	-7408
engu	-7409
eyed	-7410
ieve	-7411
itar	-7412
lend	-7413
list	-7414
olar	-7415
opod	-7416
outs	-7417
pers	-7418
ropa	-7419
uits	-7420
unks	-7421
▁10.	-7422
▁193	-7423
▁Alz	-7424
▁Ara	-7425
▁DVD	-7426
▁Dal	-7427
▁Def	-7428
▁GDP	-7429
▁Ham	-7430
▁Hol	-7431
▁Jup	-7432
▁Len	-7433
▁Mad	-7434
▁Mod	-7435
▁Sea	-7436
▁blu	-7437
▁geo	-7438
▁gro	-7439
▁mim	-7440
▁sne	-7441
▁tie	-7442
▁tro	-7443
▁unh	-7444
▁vel	-7445
▁wra	-7446
acing	-7447
apped	-7448
clock	-7449
duate	-7450
erals	-7451
ested	-7452
ician	-7453
igger	-7454
itzer	-7455
ontal	-7456
oples	-7457
orage	-7458
orida	-7459
orter	-7460
owing	-7461
stand	-7462
▁Camb	-7463
▁None	-7464
▁Octo	-7465
▁Tony	-7466
▁Vict	-7467
▁acts	-7468
▁bush	-7469
▁clim	-7470
▁dear	-7471
▁echo	-7472
▁gath	-7473
▁golf	-7474
▁hill	-7475
▁jail	-7476
▁lamp	-7477
▁lawn	-7478
▁mail	-7479
▁pale	-7480
▁pole	-7481
▁rank	-7482
▁salt	-7483
▁sits	-7484
▁wise	-7485
aneous	-7486
lihood	-7487
lusive	-7488
▁Buddh	-7489
▁Greek	-7490
▁Hawai	-7491
▁Hello	-7492
▁Julia	-7493
▁Molas	-7494
▁Peter	-7495
▁Smith	-7496
▁ambig	-7497
▁balls	-7498
▁bless	-7499
▁blown	-7500
▁breed	-7501
▁cabin	-7502
▁camps	-7503
▁crank	-7504
▁gases	-7505
▁hairs	-7506
▁hired	-7507
▁jewel	-7508
▁lobby	-7509
▁minor	-7510
▁neutr	-7511
▁opera	-7512
▁pulls	-7513
▁sympt	-7514
▁tends	-7515
▁utter	-7516
▁valid	-7517
▁woods	-7518
▁wrist	-7519
Saharan	-7520
iveness	-7521
ogether	-7522
related	-7523
ressing	-7524
▁60,000	-7525
▁Europa	-7526
▁Portug	-7527
▁Sudhir	-7528
▁Wright	-7529
▁approx	-7530
▁barrel	-7531
▁breast	-7532
▁caring	-7533
▁copies	-7534
▁debris	-7535
▁devast	-7536
▁divide	-7537
▁excuse	-7538
▁gender	-7539
▁layers	-7540
▁lowest	-7541
▁margin	-7542
▁owners	-7543
▁potato	-7544
▁proced	-7545
▁rescue	-7546
▁revers	-7547
▁rising	-7548
▁shield	-7549
▁smells	-7550
▁survey	-7551
▁widely	-7552
etheless	-7553
▁Florida	-7554
▁Jupiter	-7555
▁October	-7556
▁Switzer	-7557
▁absence	-7558
▁analogy	-7559
▁aspects	-7560
▁deserve	-7561
▁despair	-7562
▁devoted	-7563
▁elected	-7564
▁enemies	-7565
▁equally	-7566
▁fishing	-7567
▁guarant	-7568
▁herself	-7569
▁ignored	-7570
▁involve	-7571
▁limited	-7572
▁logging	-7573
▁logical	-7574
▁neither	-7575
▁overall	-7576
▁painful	-7577
▁painted	-7578
▁peoples	-7579
▁promote	-7580
▁reminds	-7581
▁simpler	-7582
▁smoking	-7583
▁staying	-7584
▁storage	-7585
▁trivial	-7586
efficient	-7587
▁Secondly	-7588
▁academic	-7589
▁ancestry	-7590
▁attacked	-7591
▁dialogue	-7592
▁educated	-7593
▁engaging	-7594
▁entering	-7595
▁extended	-7596
▁grateful	-7597
▁homework	-7598
▁identify	-7599
▁manifest	-7600
▁navigate	-7601
▁northern	-7602
▁precious	-7603
▁provided	-7604
▁railroad	-7605
▁scanning	-7606
▁sidewalk	-7607
▁simulate	-7608
▁southern	-7609
▁traveled	-7610
▁wondered	-7611
▁Alzheimer	-7612
▁Telescope	-7613
▁continues	-7614
▁describes	-7615
▁excellent	-7616
▁frequency	-7617
▁illusions	-7618
▁increased	-7619
▁investing	-7620
▁magnitude	-7621
▁mortality	-7622
▁recycling	-7623
▁reduction	-7624
▁sentences	-7625
▁spreading	-7626
▁statistic	-7627
▁transcend	-7628
▁variation	-7629
▁algorithms	-7630
▁approaches	-7631
▁beekeepers	-7632
▁categories	-7633
▁collection	-7634
▁connecting	-7635
▁destroying	-7636
▁enormously	-7637
▁enthusiasm	-7638
▁laboratory	-7639
▁likelihood	-7640
▁motivation	-7641
▁profitable	-7642
▁relativity	-7643
▁replicator	-7644
▁yourselves	-7645
▁Switzerland	-7646
▁cooperative	-7647
▁electronics	-7648
▁journalists	-7649
▁researchers	-7650
▁applications	-7651
▁headquarters	-7652
▁instructions	-7653
▁interactions	-7654
▁surprisingly	-7655
▁controversial	-7656
▁gravitational	-7657
▁extraordinarily	-7658
99	-7659
Be	-7660
wa	-7661
600	-7662
cav	-7663
ctu	-7664
eep	-7665
gun	-7666
har	-7667
lad	-7668
mun	-7669
och	-7670
sur	-7671
yal	-7672
▁29	-7673
▁AM	-7674
▁KS	-7675
▁Ma	-7676
▁PR	-7677
▁Tw	-7678
▁US	-7679
▁Us	-7680
▁ZK	-7681
▁eB	-7682
▁ho	-7683
▁nu	-7684
▁py	-7685
char	-7686
eram	-7687
ette	-7688
hall	-7689
live	-7690
lock	-7691
made	-7692
osen	-7693
osis	-7694
pril	-7695
take	-7696
type	-7697
▁20-	-7698
▁Aug	-7699
▁Bor	-7700
▁Del	-7701
▁Fre	-7702
▁Mag	-7703
▁Ray	-7704
▁Sal	-7705
▁Sec	-7706
▁Toy	-7707
▁Ven	-7708
▁agn	-7709
▁ain	-7710
▁lit	-7711
▁tea	-7712
▁uns	-7713
0,000	-7714
Would	-7715
ading	-7716
agina	-7717
ckets	-7718
class	-7719
cycle	-7720
forms	-7721
grade	-7722
icked	-7723
minal	-7724
ocity	-7725
olith	-7726
oning	-7727
press	-7728
umann	-7729
utral	-7730
▁Adam	-7731
▁Jose	-7732
▁Lord	-7733
▁Mach	-7734
▁Make	-7735
▁Miss	-7736
▁Nick	-7737
▁Noll	-7738
▁Phot	-7739
▁Post	-7740
▁Slow	-7741
▁Sold	-7742
▁Star	-7743
▁Supp	-7744
▁beef	-7745
▁belt	-7746
▁cake	-7747
▁cast	-7748
▁clar	-7749
▁drag	-7750
▁flap	-7751
▁glob	-7752
▁menu	-7753
▁nano	-7754
▁nurs	-7755
▁outc	-7756
▁plot	-7757
▁sail	-7758
▁spat	-7759
▁subs	-7760
▁west	-7761
eprint	-7762
ivered	-7763
minute	-7764
owning	-7765
person	-7766
phones	-7767
uction	-7768
▁1,500	-7769
▁6,000	-7770
▁Antar	-7771
▁April	-7772
▁Cheet	-7773
▁Child	-7774
▁Danny	-7775
▁Gates	-7776
▁Harry	-7777
▁Klein	-7778
▁Linux	-7779
▁Pepsi	-7780
▁River	-7781
▁Satan	-7782
▁Scott	-7783
▁Seven	-7784
▁Spain	-7785
▁Stone	-7786
▁Under	-7787
▁award	-7788
▁baker	-7789
▁banks	-7790
▁bored	-7791
▁cable	-7792
▁carbs	-7793
▁chips	-7794
▁coinc	-7795
▁explo	-7796
▁fancy	-7797
▁fault	-7798
▁fifth	-7799
▁fuels	-7800
▁gorge	-7801
▁honey	-7802
▁incor	-7803
▁items	-7804
▁lists	-7805
▁maker	-7806
▁mixed	-7807
▁mobil	-7808
▁nutri	-7809
▁pharm	-7810
▁plate	-7811
▁polar	-7812
▁resur	-7813
▁secre	-7814
▁smile	-7815
▁steam	-7816
▁stunt	-7817
▁trips	-7818
▁unpre	-7819
▁vivid	-7820
▁yeast	-7821
▁yield	-7822
forward	-7823
reshold	-7824
▁Almost	-7825
▁August	-7826
▁Bonobo	-7827
▁Indeed	-7828
▁Turkey	-7829
▁adjust	-7830
▁amazed	-7831
▁antenn	-7832
▁argued	-7833
▁beaten	-7834
▁behalf	-7835
▁binary	-7836
▁borrow	-7837
▁burned	-7838
▁chosen	-7839
▁cliffs	-7840
▁copper	-7841
▁curves	-7842
▁editor	-7843
▁export	-7844
▁extrem	-7845
▁forgot	-7846
▁fought	-7847
▁hatred	-7848
▁horror	-7849
▁ignore	-7850
▁inevit	-7851
▁killer	-7852
▁marvel	-7853
▁mating	-7854
▁partly	-7855
▁richer	-7856
▁rotate	-7857
▁season	-7858
▁settle	-7859
▁shadow	-7860
▁sports	-7861
▁tested	-7862
▁tricky	-7863
▁worthy	-7864
volution	-7865
▁Spanish	-7866
▁Whereas	-7867
▁adapted	-7868
▁amongst	-7869
▁attacks	-7870
▁beneath	-7871
▁bicycle	-7872
▁compreh	-7873
▁dancing	-7874
▁defense	-7875
▁desktop	-7876
▁empathy	-7877
▁enabled	-7878
▁farming	-7879
▁forests	-7880
▁founded	-7881
▁lighter	-7882
▁mineral	-7883
▁miracle	-7884
▁notions	-7885
▁planned	-7886
▁posture	-7887
▁refugee	-7888
▁samples	-7889
▁sensors	-7890
▁serving	-7891
▁	-7892
e	-7893
t	-7894
o	-7895
a	-7896
n	-7897
i	-7898
s	-7899
h	-7900
r	-7901
l	-7902
d	-7903
u	-7904
c	-7905
y	-7906
m	-7907
w	-7908
g	-7909
f	-7910
,	-7911
p	-7912
.	-7913
b	-7914
v	-7915
k	-7916
'	-7917
I	-7918
-	-7919
A	-7920
T	-7921
S	-7922
"	-7923
W	-7924
x	-7925
0	-7926
B	-7927
j	-7928
?	-7929
N	-7930
z	-7931
:	-7932
H	-7933
M	-7934
C	-7935
1	-7936
q	-7937
Y	-7938
D	-7939
O	-7940
E	-7941
P	-7942
♫	-7943
G	-7944
L	-7945
2	-7946
R	-7947
K	-7948
F	-7949
5	-7950
;	-7951
9	-7952
J	-7953
3	-7954
U	-7955
4	-7956
V	-7957
’	-7958
6	-7959
8	-7960
7	-7961
!	-7962
[	-7963
]	-7964
Z	-7965
X	-7966
Q	-7967
/	-7968
$	-7969
&	-7970
)	-7971
é	-7972
ù	-7973
ö	-7974
–	-7975
á	-7976
ó	-7977
#	-7978
%	-7979
í	-7980
ü	-7981
(	-7982
+	-7983
@	-7984
â	-7985
ä	-7986
*	-7987
=	-7988
É	-7989
à	-7990
ê	-7991
ï	-7992
ñ	-7993
ò	-7994
ć	-7995
